<unk>
<pad>
<sos>
<eos>
xor_eax_eax,
test_eax_eax,
pop_rbx,
mov_rdi_rax,
ret,
pop_rbp,
push_rbp,
test_rax_rax,
push_rbx,
pop_r12,
mov_rdi_rbx,
mov_rdi_rbp,
push_r12,
ret
pop_r13,
push_r13,
mov_rax_qword_ptr_fs:[0x28],
pop_r14,
je_0x1@@
xor_edx_edx,
add_rsp_8,
sub_rsp_8,
push_r14,
mov_rdi_r12,
5,
7,
mov_esi_1,
mov_rax_qword_ptr_[rbp-8],
3,
b,
1,
mov_rax_qword_ptr_[rbp-0x18],
c,
2,
9,
d,
6,
je_0xffffffffffffff@@
e,
a,
jmp_0xfffffffffffffe@@
test_rdi_rdi,
endbr64,
mov_eax_0,
mov_rbp_rsp,
4,
xor_esi_esi,
pop_r15,
call_0xffffffffffffe@@
push_r15,
f,
mov_rbx_rdi,
4@@
8@@
6@@
b@@
jne_0xffffffffffffff@@
jne_0x@@
7@@
a@@
mov_rdx_rax,
9@@
3@@
e@@
mov_rdi_r13,
c@@
xor_ecx_ecx,
mov_rsi_rax,
5@@
9],
d@@
mov_rax_qword_ptr_[rax],
test_al_al,
test_rsi_rsi,
mov_rsi_rbp,
f@@
2@@
je_0x2@@
call_0xffffffffffffd@@
call_0x1@@
c],
xor_edi_edi,
jle_0x@@
jbe_0x@@
mov_edi_1,
jne_0x1@@
call_0xfffffffffffe@@
call_0xffffffffffffc@@
1],
mov_rax_qword_ptr_[rbp-0x28],
mov_rbp_rdi,
mov_eax_1,
mov_rbx_rax,
mov_rsi_rbx,
0@@
je_7,
mov_rdi_r14,
8,
leave,
mov_rsi_r12,
test_edx_edx,
6],
test_rdx_rdx,
mov_qword_ptr_[rsp+8]_rax,
add_rax_rdx,
a],
test_rbx_rbx,
5],
2],
mov_rdi_r15,
mov_edx_1,
12@@
lea_rdi_[rip+0x@@
3],
mov_edi_eax,
xor_r8d_r8d,
xor_rcx_qword_ptr_fs:[0x28],
add_rsp_0x18,
e],
10@@
mov_rax_qword_ptr_[rbp-0x10],
mov_rsi_rdx,
7],
call_0xfffffffffffd@@
f],
14@@
call_0x2@@
15@@
call_0xffffffffffffb@@
mov_rbp_rax,
lea_rdx_[rip+0x@@
20@@
call_0xfffffffffffffd@@
xor_rax_qword_ptr_fs:[0x28],
b],
movzx_eax_byte_ptr_[rax],
13@@
38],
4],
mov_qword_ptr_[rbp-8]_rax,
lea_rcx_[rip+0x@@
8]_0,
jne_0x2@@
cdqe,
]_0,
mov_edx_5,
mov_rax_qword_ptr_[rbp-0x38],
0,
mov_rax_qword_ptr_[rbp-0x20],
jne_0xfffffffffffffe@@
mov_edx_eax,
call_0xffffffffffffa@@
50],
19@@
48],
lea_rax_[r@@
mov_rsi_r13,
1a@@
40],
jmp_0x@@
18@@
lea_rdi_[r@@
30@@
d],
58],
mov_ebx_eax,
1c@@
16@@
11@@
lea_rax_[rip+0x@@
38@@
17@@
_4,
_2,
jmp_0x1@@
sub_rsp_0x18,
mov_qword_ptr_[rsp+0x18]_rax,
37@@
lea_rsi_[rip+0x@@
28@@
mov_r12_rax,
mov_eax_dword_ptr_[rax],
mov_rax_qword_ptr_[rip+0x2@@
40@@
24@@
]_1,
3c@@
30],
36@@
60],
mov_r12d_eax,
call_0xfffffffffffffc@@
_1,
22@@
je_0xfffffffffffffe@@
34@@
movzx_eax_byte_ptr_[r@@
sub_rsp_0x10,
cmp_dword_ptr_[rbp-0x@@
1d@@
2c@@
mov_esi_0x4@@
1b@@
3a@@
mov_rbp_rsi,
je_0x3@@
call_0xfffffffffffc@@
mov_eax_0xffffffff,
xor_ebx_ebx,
mov_qword_ptr_[rbx+0x@@
mov_rcx_qword_ptr_[r@@
call_0xffffffffffffff@@
28],
mov_rax_qword_ptr_[rsp+8],
27@@
00@@
mov_dword_ptr_[rbp-0x@@
mov_ecx_dword_ptr_[r@@
test_rbp_rbp,
3d@@
26@@
push_rax,
2a@@
lea_rdx_[r@@
50@@
mov_rbx_rsi,
3e@@
mov_dword_ptr_[rip+0x2@@
test_ecx_ecx,
mov_rdx_r12,
3b@@
mov_edx_dword_ptr_[r@@
call_0xfffffffffffffe@@
mov_edi_0x4@@
70],
lea_r8_[rip+0x@@
20],
8],
1e@@
mov_rsi_rcx,
5a@@
lea_rsi_[r@@
call_0xffffffffffff7@@
cmp_eax_1,
2b@@
mov_rcx_rax,
mov_rdx_rbx,
6c@@
2e@@
mov_esi_dword_ptr_[r@@
get
56@@
mov_ebp_eax,
57@@
5c@@
xor_ebp_ebp,
mov_qword_ptr_[rip+0x2@@
60@@
8d@@
mov_rbx_qword_ptr_[r@@
call_0x4@@
_0x10,
2d@@
mov_eax_dword_ptr_[rip+0x2@@
xor_r12d_r12d,
add_rsp_0x10,
90@@
80@@
4a@@
_3,
70@@
68],
80],
cmp_eax_-1,
_8,
5b@@
58@@
mov_r12_rdi,
54@@
mov_dword_ptr_[rbx+0x@@
97@@
call_0xfffffffffffffb@@
mov_rax_qword_ptr_[rax+8],
9c@@
fe@@
1f@@
_0x20,
4c@@
mov_edi_dword_ptr_[r@@
5e@@
9b@@
jmp_0xfffffffffffffd@@
sub_rsp_0x20,
ff@@
96@@
10,
9a@@
5d@@
mov_edx_0x1@@
fc@@
mov_ecx_eax,
call_0xfffffffffff@@
mov_rsi_r14,
94@@
ea@@
mov_rsi_qword_ptr_[r@@
fa@@
9d@@
test_esi_esi,
47@@
jae_0x@@
0]_0,
mov_eax_ebx,
98@@
8]_rax,
mov_rax_qword_ptr_[rbp-0x30],
di+0x@@
test_r12_r12,
movzx_eax_al,
mov_rdx_rbp,
mov_r12_rsi,
ec@@
bb@@
78],
je_9,
movzx_edx_byte_ptr_[r@@
fd@@
f0@@
20,
lea_eax_[r@@
mov_rdx_qword_ptr_[r@@
f7@@
1@@
32@@
call_0xfffffffffffb@@
4d@@
call_0xfffffffffffffa@@
3f@@
mov_eax_dword_ptr_[r@@
9e@@
mov_r12_qword_ptr_[r@@
fb@@
86@@
00,
]_rax,
90,
35@@
mov_qword_ptr_[rsp+0x10]_rax,
4b@@
add_rsp_0x28,
mov_rbp_qword_ptr_[r@@
90],
_edi,
mov_rax_qword_ptr_[rbp-0x48],
mov_edx_0x4@@
_dword_ptr_[r@@
66@@
]_al,
48@@
je_0xa,
6d@@
25@@
_esi,
cmp_eax@@
_ebx,
mov_rax_rdx,
dd@@
44@@
xor_r9d_r9d,
mov_edi@@
mov_rax_qword_ptr_[rsp+0x18],
88],
24],
6b@@
mov_rdi_qword_ptr_[rip+0x2@@
mov_eax_r12d,
6a@@
mov_eax@@
lea_rcx_[r@@
call_0xfffffffffffa@@
mov_rax_qword_ptr_[rip+0x20@@
add_rax_1,
_r12d,
mov_rdi_qword_ptr_[rsp+8],
18,
mov_esi_eax,
je_0xc,
a0],
mov_rdx_r13,
_ebp,
67@@
mov_rax_qword_ptr_[rbp-0x58],
cmp_edx@@
14],
mov_rax_qword_ptr_[r@@
mov_rdi_qword_ptr_[rax],
80,
test_ebx_ebx,
_0x40,
55@@
88@@
mov_r13_qword_ptr_[r@@
8a@@
mov_edi_0x40@@
2c],
33@@
mov_r13_rax,
movzx_eax_word_ptr_[r@@
mov_rax_qword_ptr_[rdi],
2f@@
_ecx,
98,
sub_rsp_0x28,
8c@@
bx+0x@@
set
34],
23@@
30,
87@@
mov_qword_ptr_[rsp+0x28]_rax,
mov_rcx_qword_ptr_[rsp+8],
_edx,
test_rcx_rcx,
_r8d,
38,
28,
mov_eax_ebp,
test_edi_edi,
_r9d,
mov_dword_ptr_[rip+0x@@
test_r12d_r12d,
8]_rdx,
bx],
18],
mov_rdi_qword_ptr_[r@@
call_0xfffffffffffff@@
_0xa,
mov_rdx_qword_ptr_[rax],
]_4,
mov_rax_rbx,
40,
mov_r14_qword_ptr_[r@@
12],
_rdx,
je_0x4@@
8b@@
mov_eax_dword_ptr_[rbp-0x@@
call_0xffffffffffff8@@
test_ebp_ebp,
mov_rax_qword_ptr_[rax+0x10],
je_0xb,
mov_rax_qword_ptr_[rip+0x@@
mov_eax_edx,
10],
je_0xe,
mov_qword_ptr_[rsp+0x1@@
mov_rax_qword_ptr_[rbx],
mov_esi_0x40@@
0
mov_qword_ptr_[rbp-0x18]_rdi,
ff,
ed@@
_0x4@@
_5,
mov_rdi_qword_ptr_[rbx],
bp],
cmp_rax@@
mov_byte_ptr_[rsp+0x@@
cmp_byte_ptr_[r@@
mov_rax_qword_ptr_[rsp+0x10],
e0],
ax+0x@@
64@@
98],
]@@
cmp_qword_ptr_[rbp-0x@@
call_0xa@@
repe_cmpsb_byte_ptr_[rsi]_byte_ptr_[rdi],
7a@@
b0],
9
call_rax,
_r13d,
db
mov_rax_qword_ptr_[rsp],
jmp_rax,
ee@@
mov_rsi_rsp,
8]_eax,
mov_rsi_r15,
e0@@
]_2,
call_0x3@@
6f@@
6e@@
mov_r15_qword_ptr_[r@@
jne_0xc,
99@@
xor_r13d_r13d,
aa@@
mov_r8_qword_ptr_[r@@
mov_qword_ptr_[rsp]_rax,
9f@@
c
call_0x7@@
call_0xffffffffffff9@@
je_0xf,
29@@
7d@@
eb@@
pxor_xmm0_xmm0,
mov_edx_2,
mov_r8d_dword_ptr_[r@@
cc@@
c0@@
mov_qword_ptr_[rbp-0x18]_rax,
e0,
7b@@
95@@
push_0,
13],
add_rsp_0x20,
je_0x12,
mov_edi_3,
mov_edx_0x@@
60,
mov_qword_ptr_[rbp-0x10]_rax,
]_eax,
mov_r15d_eax,
7c@@
c0,
_7,
mov_rax_qword_ptr_[rbp-0x40],
mov_dword_ptr_[rax+0x@@
mov_rcx_rbx,
sete_al,
_rcx,
_0x@@
c0],
jne_0x3@@
_r12,
46@@
test_r13_r13,
call_0xffffffffffff6@@
mov_rdi_qword_ptr_[rip+0x20@@
jmp_7,
mov_rdi_qword_ptr_[rip+0x@@
f0],
1b,
4e@@
mov_rcx_r12,
8e@@
cmp_al@@
_rbp,
50,
_r14d,
mov_rcx_rdx,
_0x30,
mov_qword_ptr_[rip+0x@@
84@@
mov_byte_ptr_[r@@
5f@@
mov_r12_rdx,
mov_rsi_qword_ptr_[rsp+8],
cmp_qword_ptr_[r@@
pop_rdx,
_6,
bp+0x@@
call_0xb@@
jg@@
8]_rdi,
0]_rdx,
je_0xd,
ea,
15,
45@@
48,
1d,
ja_0xffffffffffffff@@
_qword_ptr_[r@@
mov_esi_0,
64,
call_0xffffffffffff0@@
mov_edx_0x2@@
8]@@
17,
58,
ja@@
lea_r9_[rip+0x@@
mov_qword_ptr_[rbp+0x@@
93@@
ja_0x1@@
si],
mov_r14_rax,
42@@
]_xmm0,
mov_byte_ptr_[rbp-0x@@
6
d0],
12+0x@@
and_eax@@
mov_qword_ptr_[rip+0x20@@
b
19,
mov_word_ptr_[r@@
_r13,
5
mov_qword_ptr_[rax]_rdx,
bx@@
je_0x11,
movzx_ecx_byte_ptr_[r@@
14,
8]_rcx,
_r15d,
9b,
88,
1e,
13,
8]_1,
mov_edx_0,
jmp_0x5@@
11,
12,
e8],
68,
97,
cmp_ebx@@
4f@@
77@@
mov_rdi_rdx,
b8],
_eax,
a0@@
3c],
jmp_0x2@@
92@@
94,
68@@
15],
96,
jmp_0xffffffffffff@@
4
8f@@
mov_eax_dword_ptr_[rax+0x@@
jns@@
a8],
_rbx,
mov_rbx_rdx,
c8],
mov_dword_ptr_[rsp+0x@@
1c,
16,
85@@
1
0]_rax,
mov_dword_ptr_[rip+0x20@@
99,
movsxd_rdx_eax,
9d,
cmovne@@
91,
je_8,
mov_qword_ptr_[rax+0x@@
4]_0,
mov_rdx_r14,
mov_dword_ptr_[rbp+0x@@
_0xc,
and_edx@@
mov_rdx_qword_ptr_[rip+0x2@@
mov_rdx_qword_ptr_[rsp+8],
bx+0x1@@
e
call_0x6@@
mov_r13_rsi,
mov_r15_rax,
65@@
9c,
_0x1@@
9e,
mov_ecx_1,
92,
mov_rbp_rdx,
mov_r13_rdi,
95,
_0x18,
call_qword_ptr_[r@@
xor_r15d_r15d,
mov_eax_dword_ptr_[rip+0x20@@
mov_rdi_rsp,
8
e8,
mov_qword_ptr_[rbp-8]_rdi,
b0@@
cmove@@
mov_rdi_qword_ptr_[rsp+0x10],
jne_9,
1f,
test_dl_dl,
mov_rax_qword_ptr_[rax+0x18],
xor_r14d_r14d,
1a,
9a,
93,
9f,
cmp_dl@@
js@@
lea_rdx_[rax+1],
xor_rbx_qword_ptr_fs:[0x28],
7
mov_r9d@@
test_r13d_r13d,
f
di],
7e@@
ca@@
d
0]_eax,
d0@@
cmp_dword_ptr_[r@@
jb@@
c]@@
add_rsp_0x38,
3c,
call_0xfffffffffffed@@
3d,
]_-1,
0]_rsi,
movsxd_rax_dword_ptr_[r@@
a
2
_r14,
mov_eax_dword_ptr_[rip+0x@@
_rsi,
test_r14_r14,
_0x7@@
mov_byte_ptr_[rax]_0,
lea_r12_[r@@
mov_ebx@@
shl_rax_4,
bp@@
call_0x5@@
call_0xfffffffffffea@@
mov_qword_ptr_[rsp]_0,
bx+8],
add_eax_1,
ba@@
4]_edx,
37,
si+0x@@
add_qword_ptr_[rbp-0x@@
mov_rdi_qword_ptr_[rsp],
35,
3
call_0xffffffffffff4@@
sub_rsp_0x38,
0]@@
call_0xc@@
2d,
je_0x16,
je_0x10,
mov_rdi_qword_ptr_[rsp+0x18],
_0x5@@
sub_rsp_0x30,
4]@@
70,
39,
dx+0x@@
jg_0xffffffffffffff@@
mov_rax_r12,
33,
b0,
mov_ebp@@
mov_qword_ptr_[rdi+0x@@
test_r8d_r8d,
mov_r9_qword_ptr_[r@@
0]_rcx,
test_r15_r15,
31,
lea_edx_[r@@
3f,
4]_eax,
78,
34,
je_0x18,
mov_r9d_dword_ptr_[r@@
test_r14d_r14d,
7f@@
c8,
test_byte_ptr_[r@@
3a,
cd@@
mov_r13_rdx,
je_0x15,
_0x3f,
cb@@
3b,
24,
_0x80,
cmp_eax_2,
mov_rsi_qword_ptr_[rax],
mov_edi_ebp,
4]_1,
mov_rcx_rbp,
di+8],
mov_edi_ebx,
mov_eax_dword_ptr_[rbx+0x@@
ax+0x1@@
mov_rdx_rsp,
cmp_edi@@
]_8,
cmp_rdx_rax,
2c,
32,
je_0x1b,
je_0x17,
_0xf,
setne_al,
je_0x13,
2e,
21,
call_0xfffffffffffee@@
29,
mov_r13d_eax,
_r15,
mov_edx_dword_ptr_[rbp-0x@@
lea_rax_[rbp-0x@@
jne_7,
je_0x1a,
add_rax@@
3e,
mov_rdi_rcx,
di@@
call_0x8@@
d8],
_rdi,
call_0xfffffffffffec@@
26,
je_0x1d,
mov_rax_qword_ptr_[rsp+0x28],
call_qword_ptr_[rax+0x@@
4c],
15+0x@@
lea_rbp_[r@@
mov_esi_0x1@@
f0,
mov_edi_0x6@@
call_0xffffffffffff5@@
call_0xfffffffffffff0@@
mov_qword_ptr_[rsp+0x20]_rax,
cmp_ecx@@
mov_rdi_rsi,
36,
25,
jmp_0xfffffffffff@@
lea_r13_[r@@
76@@
23,
2a,
2b,
mov_ecx_0xffffffff,
_0x6@@
74@@
mov_eax_dword_ptr_[rsp+0xc],
jge_0x@@
mov_qword_ptr_[rbx]_rax,
or@@
lea_rdx_[rbp-0x@@
mov_ecx@@
b8,
je_0x5@@
ax],
22,
1]_0,
mov_qword_ptr_[rbx+0x1@@
lea_rbx_[r@@
20]_0,
ef,
ef@@
87,
je_0x14,
sub_eax_1,
mov_qword_ptr_[rsp+8]_0,
js_0x1@@
78@@
mov_qword_ptr_[rsp+0x38]_rax,
and@@
push_rdx,
85,
lea_rax_[rsp+0x@@
d0,
da@@
89,
movups_xmmword_ptr_[r@@
movzx_edx_word_ptr_[r@@
27,
mov_rcx_r13,
_9,
mov_r14d_eax,
movsxd_rdx_edx,
86,
and_eax_1,
je_0x19,
call_0x10@@
f8,
bd@@
8d,
mov_rax_qword_ptr_[rdi+0x@@
dx],
mov_qword_ptr_[rbp-0x@@
2f,
pop_rcx,
6d,
be@@
mov_edx_0x3@@
sub_eax@@
lea_r14_[r@@
84,
mov_rdx_rsi,
83,
cmp_rdx@@
je_0x1c,
_r10d,
test_r15d_r15d,
6c,
63,
sp+0x1@@
mov_rsi_rdi,
mov_rdx_qword_ptr_[rbp-0x@@
mov_rax_qword_ptr_[rbp],
mov_rcx_qword_ptr_[rsp+0x18],
_cl,
mov_r12d@@
mov_qword_ptr_[r@@
call_0x@@
print
81,
5d,
ip+0x20@@
jne_0x4@@
mov_edi_7,
75@@
5c,
add_rbx_1,
mov_dword_ptr_[rbx+0x1@@
61,
bx+0x10],
]_ax,
14+0x@@
65,
13+0x@@
bc@@
_0x8@@
_dl,
mov_rdx_qword_ptr_[rbp-0x18],
_0xb,
8]_edx,
call_0xd@@
bf,
8c,
cmp_esi@@
d8,
39@@
4d,
jmp_0x6@@
mov_dword_ptr_[rsp+0xc]_eax,
41,
si@@
cmp_word_ptr_[r@@
7f,
a0,
e2,
55,
call_0xfffffffffffeb@@
53,
7d,
mov_dword_ptr_[rsp+0x1@@
44,
45,
mov_rax_qword_ptr_[rax+0x@@
mov_esi_ebp,
mov_qword_ptr_[rsp+0x4@@
mov_qword_ptr_[rsp+0x10]_0,
mov_eax_ecx,
54],
69,
57,
42,
mov_eax_dword_ptr_[rbp+0x@@
_r8,
mov_rsi_qword_ptr_[rsp+0x10],
cmp_ebp@@
59,
mov_rax_qword_ptr_[rax+0x20],
5a,
4c,
e9,
8]_rsi,
46,
mov_dword_ptr_[rax]_0,
_0x3@@
jbe_0xffffffffffffff@@
mov_rax_qword_ptr_[rbp-0x68],
5e,
54,
_-1,
6b,
82,
db@@
bp+8],
e3,
mov_word_ptr_[rsp+0x@@
66,
e5,
8e,
mov_edx_r12d,
4b,
51,
mov_qword_ptr_[rsp+0x18]_0,
75,
file
jb_0xffffffffffffff@@
5f,
6a,
5b,
cx@@
mov_ecx_0x4@@
cmp_qword_ptr_[rbp-8]_0,
49,
56,
79,
4e,
67,
7a,
e6,
je_0x1e,
jne_0x10@@
6e,
ed,
mov_edi_2,
f8],
mov_esi_edx,
6f,
mov_qword_ptr_[rax+0x1@@
52,
mov_rax_qword_ptr_[rbp+0x@@
mov_rax_qword_ptr_[rax+0x38],
62,
b5,
7c,
47,
mov_rsi_qword_ptr_[rsp+0x18],
7e,
imul@@
mov_rdx_r15,
]_edx,
mov_r8d@@
call_0xfffffffffffef@@
call_0xffffffffffffea@@
b6,
73,
mov_rax_qword_ptr_[rsp+0x20],
4a,
e7,
7b,
lea_rax_[rip+0x2@@
1]@@
dc@@
mov_qword_ptr_[rbp-0x20]_rsi,
bb,
_0x2f,
43,
mov_r8d_eax,
72,
di+0x1@@
11],
]_dl,
-0x@@
sub_rdx_rax,
4f,
mov_rdx_qword_ptr_[rsp],
_0x22,
71,
call_0xfffffffffff9@@
e4,
jne_0xb,
add_rdx_rax,
mov_eax_dword_ptr_[rbp-4],
74,
je_0x1f,
76,
jmp_0xfffffffffffffea@@
mov_r14d@@
bc,
mov_esi_2,
jmp_3,
mov_dword_ptr_[rdi+0x@@
f5,
mov_rax_qword_ptr_[rax+0x70],
jne_0xa,
20]@@
44],
ca,
push@@
eb,
_0x1f,
ax+r@@
mov_rdi_qword_ptr_[rbx+8],
_dword_ptr_[rip+0x@@
_0x2@@
77,
b3,
mov_r14_rdi,
b9,
b1,
je_0x25,
mov_ecx_edx,
mov_r8_rax,
ec,
je_0x20,
cd,
cmp_cl@@
movzx_esi_byte_ptr_[r@@
_byte_ptr_[r@@
mov_rdx_qword_ptr_[rbp-8],
je_0x22,
fe,
c4,
mov_qword_ptr_[rsp+0x30]_rax,
pop_rax,
call_0xffffffffffff@@
8a,
jne_0x10,
mov_edi_dword_ptr_[rax],
1c],
b7,
je_0x39,
db,
8f,
fd,
ee,
_rax,
0],
jmp_0x7@@
e1,
mov_qword_ptr_[rsp+0x20]_0,
a8,
lea_rsi_[rip+0x2@@
mov_qword_ptr_[rsp+0x40]_0,
jne_0x13,
8b,
mov_rdi_qword_ptr_[rbx+0x@@
jne_0x11,
cmp_r12d@@
mov_r13d@@
lea_edx_[rax+1],
_r11d,
mov_eax_dword_ptr_[rbp-0x14],
add@@
lea_r8_[r@@
je_0x21,
add_rdi@@
mov_rsi_qword_ptr_[rsp],
_0x2d,
sub_rsp_0x1@@
jne_0xe,
add_dword_ptr_[rbp-0x@@
ax+0x10],
jne_0xd,
mov_dword_ptr_[r@@
b4,
mov_rsi_qword_ptr_[rip+0x2@@
mov_qword_ptr_[rax]_0,
mov_rax_qword_ptr_[rbp-0x50],
]_3,
ja_0x@@
mov_rbx_qword_ptr_[rip+0x2@@
ba,
mov_esi_ebx,
jl@@
f4,
pop_rsi,
_dword_ptr_[rip+0x2@@
add_dword_ptr_[r@@
d2,
mov_rax_rcx,
xor_rdx_qword_ptr_fs:[0x28],
init
_0xffffffff,
28]_0,
mov_edx_0xa,
c]_0,
mov_ebx_dword_ptr_[r@@
and_ecx@@
mov_rdi_qword_ptr_[rbp],
mov_rcx_qword_ptr_[rip+0x2@@
rep_stosq_qword_ptr_[rdi]_rax,
ce,
shr@@
add_eax@@
]_cl,
mov_qword_ptr_[rbp-0x20]_rax,
c5,
fb,
mov_esi_0x5@@
b2,
f6,
30]_0,
da,
5c],
bx+0x18],
mov_rax_rbp,
mov_rdx_rcx,
mov_eax_dword_ptr_[rdi+0x@@
si+8],
call_0xfffffffffff8@@
je_6,
lea_r15_[r@@
cf,
mov_edx_dword_ptr_[rip+0x2@@
mov_eax_0x4@@
lea_rdi_[rip+0x2@@
f7,
8]_rbx,
je_0x12@@
mov_edi_0,
f1,
ax+8],
cmp_eax_0x1@@
fa,
c3,
c1,
test_r8_r8,
di+0x10],
parse
be,
f9,
cmp_qword_ptr_[rbx+0x@@
mov_qword_ptr_[rbp-0x28]_rdi,
shl_rax_3,
_0x40@@
call_0xffffffffffff3@@
f3,
jne_0x12@@
dd,
mov_rdx_qword_ptr_[rsp+0x10],
c6,
call_0xffffffffffe@@
f2,
mov_rdi_qword_ptr_[rdi],
_al,
d5,
fc,
38]_0,
mov_esi_0x@@
_0xd,
mov_qword_ptr_[r12+0x@@
mov_qword_ptr_[rsp+8]_rsi,
mov_esi@@
12+0x1@@
mov_rdi_qword_ptr_[rsp+0x20],
cmp_dword_ptr_[rsp+0x@@
mov_edi_0xa,
c]_eax,
cc,
mov_rdx_qword_ptr_[rsp+0x18],
cx+0x@@
shl_rdx_3,
cb,
lea_rcx_[rbp-0x@@
sub_rsp_0x48,
c]_edx,
movsxd_rdx_dword_ptr_[r@@
dx@@
mov_rdx_qword_ptr_[rbx+0x@@
cmp_rax_-1,
df,
bd,
c9,
add_rbx@@
mov_rdx_qword_ptr_[rbp-0x10],
lea_rsi_[rip+0xa@@
d3,
d1,
mov_qword_ptr_[rbp-0x28]_rax,
to
je_0x2a,
add_rsi@@
_0x7f,
je_0x28,
_0x100,
mov_qword_ptr_[rsp+0x58]_rax,
mov_dword_ptr_[rax]@@
xcb
mov_qword_ptr_[rsp+8]_rdx,
bx+1],
je_0x2d,
add_rsp_0x48,
jle_0xffffffffffffff@@
je_0x@@
mov_rsi_qword_ptr_[rbx],
lea_r9_[r@@
sp],
c2,
mov_edx_0x40@@
mov_edx_0x5@@
jmp_0x3@@
mov_rcx_qword_ptr_[rbp-0x@@
sp+0x14],
mov_esi_0x2@@
mov_r15d@@
-@@
or_dword_ptr_[r@@
mov_eax_eax,
5a4],
mov_rax_qword_ptr_[rbx+0x@@
mov_byte_ptr_[rsp+0x1@@
mov_r8d_1,
je_0x23,
mov_dword_ptr_[rax+0x1@@
mov_rsi_qword_ptr_[rsp+0x20],
dc,
cx],
mov_edx_ebp,
mov_r14_rsi,
cmp_edx_1,
je_0x29,
ja_0x2@@
mov_rax_rsi,
30]@@
mov_qword_ptr_[rsp+0x48]_rax,
sub_rsp_0x40,
call_0xe@@
cmp_rbx@@
6c],
c7,
_0x28,
sub_rsp@@
64],
seta_al,
mov_edx_ebx,
0]_edx,
jne_0x13@@
mov_esi_r12d,
mov_eax_0x16,
bx+0x20],
_r9,
call_0x9@@
je_0x26,
add_rdx@@
sp+4],
add_rbp@@
call_0xfffffffffff7@@
je_0x24,
test_r9d_r9d,
cmp_edx_eax,
string
cmp_eax_dword_ptr_[rbp-0x@@
lea_rdi_[rip+0x20@@
mov_ebp_esi,
movdqu_xmm0_xmmword_ptr_[r@@
mov_eax_r13d,
ip+0x@@
add_rax_rcx,
add_rsp_0x30,
d4,
d6,
de,
sp+0x18],
call_0xffffffffffffdd@@
add_ebx_1,
mov_qword_ptr_[rsp+0x48]_0,
mov_rdx_qword_ptr_[rbp-0x28],
sp+8],
sqlite3
d7,
dx+r@@
call_0xffffffffffffed@@
+rax@@
lea_ecx_[r@@
bp+0x10],
cmp_rax_rdx,
ax+0x18],
jmp_0x4@@
lea_rsi_[rsp+0x10],
8]_rbp,
call_0xffffffffffffe0@@
mov_edx_0x6@@
bx+0x28],
call_0xfffffffffffe0@@
aa,
add_qword_ptr_[r@@
_0x2e,
lea_rcx_[rsp+0x@@
]_rdx,
mov_r9_rax,
2]_0,
a5,
68]_0,
add_rax_qword_ptr_[r@@
_0x400,
mov_eax_dword_ptr_[rax+4],
bx+r@@
lea_rsi_[rip+0x4@@
a1,
free
jne_0x14@@
mov_edx@@
test_cl_cl,
ad,
mov_edx_dword_ptr_[rax],
add_eax_edx,
sub_rsp_0x58,
jne_0x16,
mov_edx_r13d,
mov_r12d_dword_ptr_[r@@
mov_ebp_dword_ptr_[r@@
mov_rax_qword_ptr_[rbx+8],
mov_rdx_qword_ptr_[rbp-0x20],
mov_qword_ptr_[rsp+0x28]_0,
d9,
mov_rax_qword_ptr_[rbp-0x78],
mov_qword_ptr_[rdx+0x@@
_0xe,
mov_rcx_qword_ptr_[rax],
28]@@
xor_rsi_qword_ptr_fs:[0x28],
12+r@@
call_0xffffffffffff2@@
call_0xffffffffffffec@@
lea_rsi_[rip+0x6@@
mov_rsi_qword_ptr_[rbx+0x@@
43@@
mov_rcx_r14,
name
lea_rax_[rsp+0x20],
+rdx@@
ip+0x2@@
ab@@
a4,
000,
ac,
ad@@
bp+r@@
_word_ptr_[r@@
mov_rdi_qword_ptr_[rbx+0x10],
si+0x1@@
jne_0x12,
_0x14,
mov_edx_4,
list
mov_edx_dword_ptr_[rax+0x@@
movzx_eax_byte_ptr_[rbp-0x@@
sp+0x1c],
_0x16,
or_eax@@
8]_r8,
mov_edi_r12d,
9c],
mov_rax_qword_ptr_[rbp-0x@@
mov_ebx_1,
mov_qword_ptr_[rsp+0x2@@
ab,
lea_rsi_[rip+0x3@@
mov_byte_ptr_[rsp+@@
movzx_ecx_word_ptr_[r@@
sub_rsp_0x68,
jmp_0xffffffffffffffa@@
lea_rdx_[rax*8],
c]_1,
+2],
mov_r14_rdx,
+rcx@@
]_dx,
mov_r12d_1,
a6,
call_0xffffffffffffee@@
12+8],
jne_8,
mov_rsi_qword_ptr_[rbp-0x@@
mov_rcx_qword_ptr_[rbp-8],
ac@@
mov_esi_0x6@@
je_0x31,
mov_rax_qword_ptr_[rsp+0x38],
dec@@
jne_0x15,
cmp_r15d@@
je_0x27,
add_rax_8,
di+r@@
19],
call_0xffffffffffffeb@@
cmp_r12@@
cmp_r8d@@
call_0xfffffffffff6@@
movaps_xmmword_ptr_[rbp-0x@@
mov_ecx_0x1@@
jmp_0xffffffffffffffc@@
28]_rax,
a7,
sbb_al_0,
jne_0x15@@
a9,
jmp_0xffffffffffffffd@@
a2,
mov_r15_rdi,
a3,
mov_rax_qword_ptr_[rbp-0xb8],
inc@@
je_0x6@@
add_rsp@@
jne_0x14,
2]@@
sbb@@
add_rdx_1,
mov_edi_6,
mov_rax_qword_ptr_[rbx+0x10],
lea_rdi_[rsp+0x@@
neg_eax,
add_rsp_0x58,
13+r@@
lea_rax_[rip-0x@@
jmp_0xffffffffffffffb@@
mov_qword_ptr_[rsp+0x3@@
jne_0xf,
mov_rax_qword_ptr_[rax+0x28],
mov_r10d_dword_ptr_[r@@
ae,
mov_rdi_qword_ptr_[rbp+0x@@
mov_rax_rdi,
cmp_r13d@@
8]_r12,
mov_r13d_dword_ptr_[r@@
af,
mov_rdx_qword_ptr_[rax+0x10],
add_rax_rax,
_[rax+1],
je_0x2c,
je_0x30,
lea_rbx_[rip+0x@@
div@@
13+0x1@@
_r10,
mov_rax_qword_ptr_[rbp-0x60],
mov_rdx_qword_ptr_[rax+8],
cmp_eax_dword_ptr_[r@@
lea_r12_[rip+0x@@
lea_rsi_[rip+0x5@@
add_rsp_0x68,
mov_rdi_qword_ptr_[rsp+0x28],
sub_edx_eax,
mov_qword_ptr_[rax+8]_rdx,
_0x38,
je_0x2e,
84],
di+0x18],
mov_rax_qword_ptr_[rax+0x30],
movsx_eax_al,
mov_qword_ptr_[rsp+8]_rcx,
bp+1],
_0x10@@
cmp_qword_ptr_[rsp+0x@@
lea_rax_[rip+0x20@@
mov_edx_dword_ptr_[rbx+0x@@
mov_qword_ptr_[rsp+0x30]_0,
di+0x30],
mov_qword_ptr_[rbp-0x10]_rsi,
jmp_0x8@@
50]_0,
si+0x10],
movsd_qword_ptr_[r@@
mov_r12d_esi,
14+0x1@@
lea_rsi_[rip+0x14@@
8+0x@@
je_0x2b,
cmp_rbp@@
mov_esi_4,
mov_rdi_r8,
di+0x20],
je_0x32,
mov_ecx_0,
mov_qword_ptr_[r12@@
cmp_r14d@@
add_rsp_0x1@@
mov_qword_ptr_[rbp]_rax,
_0xff,
mov_ecx_dword_ptr_[rbp-0x@@
add_ecx@@
movzx_eax_ax,
lea_esi_[r@@
lea_rsi_[rip+0x7@@
mov_r12d_edx,
je_0x2f,
mov_rdx_rdi,
cmp_eax_0x2@@
add_rbx_8,
js_0x@@
test_byte_ptr_[rbx+0x@@
call_0xffffffffffffda@@
mov_edx_dword_ptr_[rsp+0x@@
mov_esi_ecx,
mov_qword_ptr_[rsp+0x5@@
mov_eax_dword_ptr_[rax+0x10],
mov_qword_ptr_[rsp+0x@@
mov_rdx_qword_ptr_[rax+0x@@
jne_0x18,
sp+0x10],
push_qword_ptr_[r@@
dx+0x1@@
cmp_eax_3,
cx+r@@
mov_eax_r8d,
bp-0x@@
+rax*4],
mov_r12_rcx,
jne_0x1b,
mov_qword_ptr_[rbx@@
_qword_ptr_[rip+0x@@
mov_qword_ptr_[rsp+8]_rdi,
mov_dword_ptr_[rbp-0x4@@
mov_edi_4,
jne_0x17,
_0x11,
mov_ebp_1,
ae@@
4]_ecx,
20]_1,
15+0x1@@
mov_rax_qword_ptr_[rdi+8],
lea_r12_[rsp+0x@@
lea_r13_[rsp+0x@@
mov_r8_rbx,
mov_rax_qword_ptr_[r12+0x@@
74],
add
call_0xffffffffffffd0@@
call_0xfffffffffffdd@@
_r11,
ax+0x20],
mov_rbx_qword_ptr_[rbx],
ce@@
movzx_eax@@
lea_rsi_[rip+0x10@@
7c],
cmp_r13@@
21@@
add_edx@@
cmp_rax_qword_ptr_[rbp-0x@@
mov_rax_qword_ptr_[r12],
cmp_byte_ptr_[rax]_0,
jne_0xfffffffffffffd@@
mov_qword_ptr_[rbp-0x38]_rax,
mov_r13_rcx,
mov_eax_r15d,
call_0xffffffffffffef@@
mov_ecx_r12d,
mov_r10d@@
add_r12@@
mov_eax_dword_ptr_[rbp-0xc],
mov_edi_0x5@@
]_xmm1,
mov_eax_dword_ptr_[rax+8],
sp@@
cmp_rsi@@
movsx@@
cmp_rcx@@
59@@
cmp_dword_ptr_[rip+0x2@@
xor_rdi_qword_ptr_fs:[0x28],
rl
mov_dword_ptr_[rsp+8]_eax,
lea_rbp_[rsp+0x@@
mov_rax_qword_ptr_[rsp+0x30],
08],
je_0x35,
mov_r14d_dword_ptr_[r@@
lea_rdx_[rsp+0x10],
mov_rcx_qword_ptr_[rsp+0x28],
mov_qword_ptr_[rbx+8]_rax,
-2],
94],
lea_rbp_[rip+0x@@
mov_qword_ptr_[r15+0x@@
lea_rsi_[rip+0x8@@
_0x3a,
lea_r8_[rsp+0x@@
mov_rcx_qword_ptr_[rsp+0x@@
_[rdx@@
lea_r13_[rip+0x@@
8]_ecx,
cmp_qword_ptr_[rbp-0x10]_0,
mov_eax_r14d,
08,
si+r@@
lea_edi_[r@@
lea_rdx_[rsp+0x30],
49@@
movzx_edi_byte_ptr_[r@@
mov_ecx_2,
sub_rdx@@
de@@
lea_rdx_[rip-0x@@
cmp_rdi_rax,
lea_rdi_[rax+1],
mov_ebx_edi,
15+r@@
mov_qword_ptr_[rbp-0x4@@
mov_edx_8,
sub_dword_ptr_[r@@
mov_rdx_qword_ptr_[rsp+0x28],
sub_edx@@
21],
mov_eax_esi,
+r@@
lea_rdx_[rsp+0x@@
mov_eax_dword_ptr_[rbp-0x1c],
-1],
mov_rbx_qword_ptr_[rip+0x20@@
je_0x33,
mov_eax_edi,
sub_rax@@
53@@
ax@@
cmp_ax@@
lea_rsi_[rip+0xb@@
40]_0,
mov_byte_ptr_[rax]@@
_0xffffff@@
13+8],
lea_rsi_[rip+0xd@@
_0x70,
mov_rax_qword_ptr_[rbp-0x70],
c]_ecx,
mov_ebx_esi,
jmp_0xffffffffffffffe@@
mov_qword_ptr_[r12]_rax,
mov_dword_ptr_[rax]_edx,
69@@
mov_rdx_qword_ptr_[rip+0x20@@
read
_[rax@@
mov_rsi_qword_ptr_[rsp+0x28],
cmp_rax_1,
+rcx],
je_0x36,
jne_0x1a,
je_0x34,
call_0xfffffffffffff7@@
dx+8],
mov_esi_3,
+rdx],
je_0x3d,
test_r10d_r10d,
call_0xffffffffffffca@@
js_0x2@@
lea_rbx_[rsp+0x@@
shr_rdx@@
mov_r13d_edx,
jne_0x19,
info
ja_0x3@@
call_0xfffffffffffe7@@
sar@@
_0xffff@@
jns_0xffffffffffffff@@
8+8],
mov_qword_ptr_[rbp-0x30]_rsi,
call_0xf@@
cmp_r15@@
14+8],
je_0x3c,
mov_rax_qword_ptr_[rsp+0x@@
cmp_dword_ptr_[rbx+0x@@
20]_rax,
mov_edx_ecx,
sub_rax_1,
mov_qword_ptr_[rax+0x10]_rdx,
mov_rcx_rsp,
sp+@@
mov_rdi_qword_ptr_[rdi+0x@@
mov_qword_ptr_[rbp@@
jg_0x1@@
lea_rsi_[rsp+0x@@
and_esi@@
shr_edx@@
*8],
mov_rax_qword_ptr_[rbp-0xa8],
je_0x38,
je_0x37,
mov_byte_ptr_[rbx+0x@@
mov_qword_ptr_[rdx]_rax,
mov_qword_ptr_[rbp-0x30]_rax,
mov_rax_qword_ptr_[r15+0x@@
jmp@@
jmp_0xffffffffffffff9@@
mov_dword_ptr_[rsp]@@
sete_dl,
mov_rcx_qword_ptr_[rip+0x20@@
mov_qword_ptr_[rcx@@
mov_dword_ptr_[rax+@@
mov_qword_ptr_[rbp-0x5@@
_0x5c,
63@@
si+0x18],
find
do
29],
mov_byte_ptr_[rsi+@@
lea_rsi_[rsp+8],
mov_eax_dword_ptr_[rsp+0x@@
mov_esi_r13d,
bp+0x18],
call_0xfffffffffffff8@@
je_0x42,
60]_0,
mov_rdx_qword_ptr_[rsp+0x20],
0]_rbx,
mov_qword_ptr_[rbp-0x6@@
8]_esi,
bp+0x20],
je_5,
-0x30],
14+r@@
bf@@
mov_rdx_qword_ptr_[rip+0x@@
test@@
mov_edi_dword_ptr_[rip+0x@@
mov_ecx_r13d,
movabs_rax@@
movaps_xmmword_ptr_[rsp+0x50]_xmm0,
mov_dword_ptr_[r15+0x@@
mov_rbp_rcx,
mov_r8_rbp,
shl@@
af@@
cmp_qword_ptr_[rbp-0x18]_0,
cmp_dword_ptr_[rip+0x@@
cmp_eax_4,
01,
mov_dword_ptr_[rbp-0x2@@
test_eax@@
c]_esi,
79@@
mov_rsi_qword_ptr_[rip+0x@@
mov_edx_0xffffffff,
lea_rsi_[rip+0x13@@
lea_r14_[rsp+0x@@
mov_qword_ptr_[rsp+0x38]_rcx,
add_ebp_1,
xor@@
-4],
mov_r15d_dword_ptr_[r@@
4]_edi,
mov_r10_qword_ptr_[r@@
18]_0,
lea_rax_[rdx@@
di+1],
add_rax_0x10,
]_rbx,
]_5,
je_0xfffffffffffffd@@
je_0x7@@
mov_r8_r12,
_0x1000,
mov_qword_ptr_[rbp-0x8@@
mov_qword_ptr_[rsp+0x50]_0,
bx+0x30],
+rax*@@
ea],
mov_rbx_qword_ptr_[rsp+0x@@
lea_rsi_[rip-0x@@
mov_ecx_ebx,
mov_rbx_rcx,
mov_qword_ptr_[rsp+0x6@@
22],
9+0x@@
1d],
mov_rcx_qword_ptr_[rsp+0x10],
tm
mov_qword_ptr_[rbp-0x28]_rdx,
call_0xffffffffffffdc@@
0000@@
open
mov_dword_ptr_[rbp-4]_eax,
]_sil,
clones
mov_r9_rbx,
add_rcx@@
8]_r9,
mov_edx_dword_ptr_[rip+0x@@
mov_eax_dword_ptr_[rbp-0x24],
mov_esi_dword_ptr_[rsp+0x@@
200],
16],
mov_dword_ptr_[rsp+0xc]@@
mov_byte_ptr_[rax+@@
mov_edi_dword_ptr_[rip+0x2@@
mov_r8_qword_ptr_[rsp+8],
12+0x10],
mov_rbx_qword_ptr_[rdi],
dx+0x10],
mov_eax_2,
_0xfffffffe,
shr_eax@@
cmp_qword_ptr_[rbp+0x@@
mov_eax_dword_ptr_[rsp+4],
0a,
8c],
bx+4],
mov_qword_ptr_[r13+0x@@
mov_rax_qword_ptr_[rbx+0x18],
0000,
mov_ebp_edi,
_0x50,
+rdx*4],
9d],
]_cx,
mov_edi_0x20,
mov_rdi_qword_ptr_[r12],
sub@@
mov_r9_rdx,
mov_rax_r13,
mov_rcx_r15,
lea_rdi_[rsp+0x10],
movabs_rdx@@
is
_0x200,
test_bl_bl,
movsxd_rdi_edi,
02,
31],
call_0xffffffffffffc0@@
xor_eax_1,
mov_rdi_qword_ptr_[rbp+8],
mov_rdx_qword_ptr_[rbx],
mov_qword_ptr_[rsp+0x68]_rax,
mov_rdi_qword_ptr_[rax+8],
add_r13@@
_r12@@
je_0x3a,
jl_0xffffffffffffff@@
0]_rdi,
mov_r8_r13,
48]_0,
neg@@
test_byte_ptr_[rax+0x1c9]_2,
node
jmp_0xffffffffffffff@@
bp-@@
je_0x45,
mov_byte_ptr_[rax+0x@@
1a],
fe],
je_0x4d,
mov_rax_qword_ptr_[rbp-0x80],
call_0xffffffffffffdb@@
cmp_rax_qword_ptr_[r@@
ev
mov_rcx_qword_ptr_[rsi],
-8],
test_al_1,
lea_rsi_[rip+0xc@@
000@@
_0xf@@
8]_r13,
je_0x3e,
8d],
_0x8000,
ax+0x40],
and_edx_1,
env
mov_qword_ptr_[rsp+0x40]_rax,
jne_0xffffffffffffffed,
mov_qword_ptr_[rax+0x18]_rdx,
mov_qword_ptr_[rsp+8]_r8,
cmp_qword_ptr_[rdi+0x@@
cmp_dword_ptr_[rbp+0x@@
call_0xffffffffffffbb@@
jne_0x1c,
220],
39],
mov_edx_r14d,
_rbx@@
mov_qword_ptr_[r13@@
mov_eax_0x1@@
lea_r9_[rsp+0x@@
e5@@
cx+8],
internal
mov_ecx_dword_ptr_[rsp+0x@@
00],
jae_0xffffffffffffff@@
mov_edx_0x10,
test_byte_ptr_[rax+0x@@
38]_rax,
cmp_r14@@
cx+1],
0]_1,
mov_qword_ptr_[rsp+0x38]_0,
je_0x40,
mov_rax_qword_ptr_[r13+0x@@
mov_byte_ptr_[rip+0x2@@
create
lea_rdx_[rax@@
mov_rax_r8,
05,
mov_ebp_edx,
start
04,
and_eax_0xf000,
movzx_edx_byte_ptr_[rax],
mov_qword_ptr_[rdi@@
jmp_6,
mov_rax_qword_ptr_[rbp-0xc8],
mov_rsi_r8,
mov_esi_0x3@@
lea_rdx_[rip+0x2@@
_r12d@@
call_0xfffffffffffff6@@
mov_ecx_ebp,
mov_byte_ptr_[rcx@@
mov_r11d@@
movsxd_rdx@@
mov_dword_ptr_[rdi+0x1@@
_dword_ptr_[rsp+0x@@
ax+0x30],
mov_qword_ptr_[rsp+0x48]_r9,
e7@@
+rax+1],
ff],
89@@
mov_edx_esi,
jne_0x1e,
mov_eax_dword_ptr_[rbx],
mov_rax_qword_ptr_[r14+0x@@
lea_rsi_[rip+0x12@@
03,
je_0x3f,
fff,
sub_ecx@@
30]_1,
mov_byte_ptr_[rax]_dl,
mov_dword_ptr_[rbx+@@
mov_dword_ptr_[r12+0x@@
call_0x20@@
je_0x48,
user
je_0x5d,
06,
close
+rax*2],
jne_0x1d,
sub_rsp_0x50,
lea_rdi_[rip+0x3@@
mov_rdi_qword_ptr_[rbp-0x@@
mov_esi_0xa,
cmp_sil@@
mov_rdi_qword_ptr_[rsp+0x30],
58]_0,
mov_r13d_1,
_0x3d,
_qword_ptr_[rbp-0x@@
0c,
di+0x28],
movzx_esi_word_ptr_[r@@
_ebp@@
+rdx*@@
e4@@
mov_qword_ptr_[rsp+0x40]_r8,
call_0xfffffffffffe6@@
0d,
cmp_rbx_rax,
je_0x3b,
fd],
12+1],
cf@@
_r12b,
lea_r14_[rip+0x@@
cmp_eax_0x6@@
mov_rcx_qword_ptr_[rsp],
lea_edx_[rax@@
mov_dword_ptr_[rdx+0x@@
mov_rdx_qword_ptr_[rbp-0x30],
10]_0,
call_0xfffffffffffe8@@
mov_edi_r13d,
_0,
write
mov_esi_0x20,
mov_edx_dword_ptr_[rsp+0xc],
lea_r15_[rsp+0x@@
mov_qword_ptr_[rax@@
mov_r15_rsi,
sub_rax_rdx,
28]_1,
1e],
8+0x1@@
mov_rcx_qword_ptr_[rip+0x@@
si+0x20],
mov_r8@@
mul@@
+4],
+8]_0,
mov_rdi_qword_ptr_[rbx+0x18],
mov_rdx_qword_ptr_[rbp-0x38],
check
setne@@
mov_rax_qword_ptr_[rax+0x40],
e6@@
9]_0,
0e,
cmp_r9d@@
_r9@@
js_0xffffffffffffff@@
lea_rdi_[rbx+0x@@
mov_edx_3,
0f,
call_0xfffffffffff0@@
mov_qword_ptr_[rbp-0x7@@
ax+0x70],
mov_r13d_esi,
mov_rdx_qword_ptr_[rbp+0x@@
test_sil_sil,
call_0xfffffffffffd0@@
09,
call_0xffffffffffffde@@
sub_rsp_0xd8,
b7@@
_0x800,
destroy
mov_ebx_edx,
lea_rdi_[rip+0x4@@
mov_qword_ptr_[rdx+0x1@@
jne_0xfffffffffffffff1,
test_dil_dil,
jmp_0xe,
_[rax+r@@
jne_0xfffffffffffffff0,
_r8b,
cmp_qword_ptr_[rip+0x2@@
mov_rax_qword_ptr_[rbp-0x88],
0b,
32],
dd],
70]_0,
mov_qword_ptr_[rdx@@
call_0xffffffffffee@@
c7@@
_0x20@@
shr_rax@@
call_0xffffffffffec@@
jne_0xffffffffffffffee,
f6@@
cx+0x1@@
je_0x41,
je_0x44,
jne_0x20,
2a],
mov_rax_qword_ptr_[rbp-0x10@@
mov_rcx_-1,
add_esi@@
call_0xfffffffffffe4@@
_0x78,
mov@@
mov_qword_ptr_[rdi+0x1@@
07,
bb],
jne_0xffffffffffffffea,
17],
mov_ecx_0x40@@
mov_edi_0x10,
mov_word_ptr_[rsp+0x1@@
call_0xffffffffffffcc@@
41],
je_0x43,
mov_rax_qword_ptr_[rax+0x1@@
mov_esi_0x8@@
mov_rax_qword_ptr_[rsp+0x48],
push_rcx,
mov_qword_ptr_[rbp-0x38]_rdi,
si+1],
mov_qword_ptr_[rbp-0x10@@
mov_dword_ptr_[rsp]_eax,
movzx_r8d_byte_ptr_[r@@
call_0x1a@@
mov_edx_0x8@@
1b],
lea_rsi_[rip+0x1@@
ax+0x28],
mov_qword_ptr_[rsp+0x30]_rdx,
mov_ecx_4,
+rax],
jne_6,
mov_r10@@
sub_rsp_0x78,
movsxd_rdi@@
1f],
_0x64,
_0xa@@
cmp_bl@@
jne_0x1f,
mov_qword_ptr_[r12+0x1@@
mov_edx_0x7@@
new
_qword_ptr_[rsp+8],
mov_qword_ptr_[rsp+0x60]_0,
call_qword_ptr_[rax+8],
mov_esi_0x7@@
mov_rax_qword_ptr_[rbp+0x10],
mov_qword_ptr_[r14+0x@@
mov_rsi_qword_ptr_[r12],
12+0x18],
38]_1,
call_0xfffffffffffff5@@
mov_rcx_rsi,
mov_qword_ptr_[rax+8]_0,
jmp_0x11,
and_edi@@
call_0xfffffffffffda@@
f8@@
jne_0x23,
movaps_xmmword_ptr_[rsp+0x60]_xmm1,
mov_rdx_qword_ptr_[rax+0x18],
call_0xfffffffffff5@@
mov_r11d_dword_ptr_[r@@
lea_rcx_[rip+0x20@@
movaps_xmmword_ptr_[rsp+0x70]_xmm2,
call_0xfffffffffffe9@@
lea_rax_[rax@@
mov_rax_qword_ptr_[r13],
+rdx*8],
jmp_0x15,
26],
mov_r9d_1,
sbb_eax_eax,
jmp_0x14,
movsx_eax_byte_ptr_[r@@
mov_qword_ptr_[rbp-0x3@@
c6@@
movaps_xmmword_ptr_[rsp+0x80]_xmm3,
mov_rsi_qword_ptr_[rbp+0x@@
movaps_xmmword_ptr_[rsp+0x90]_xmm4,
movaps_xmmword_ptr_[rsp+0xa0]_xmm5,
movaps_xmmword_ptr_[rsp+0xb0]_xmm6,
call_0xffffffffffed@@
mov_eax_dword_ptr_[rsp+8],
mov_rdi_qword_ptr_[rdi+8],
add_r14@@
call_0xffffffffffffcb@@
ext2fs
movaps_xmmword_ptr_[rsp+0xc0]_xmm7,
mov_esi_0x400,
main
call_0xffffffffffffcd@@
w@@
fff@@
pop_rdi,
je_0x4a,
jmp_0xffffffffffffff8@@
test_al_2,
test_r9_r9,
jne_0x22,
log
_bl,
mov_rax_qword_ptr_[rbx+0xe0],
mov_edx_dword_ptr_[rbp+0x@@
movaps_xmmword_ptr_[rsp+0x@@
and_eax_2,
mov_dword_ptr_[rsp+8]_edx,
jmp_0xfffffffffffff@@
mov_ecx_0x80,
14+1],
shl_rax_2,
or_byte_ptr_[r@@
cmp_r8@@
sp+0x10@@
mov_qword_ptr_[rsp]_rsi,
mov_r8_rdi,
25],
mov_dword_ptr_[rbp-0x14]_eax,
f5@@
mov_dword_ptr_[rsp+0x10]_eax,
mov_esi_0x2f,
18]_rax,
cmp_byte_ptr_[rdx]_0,
test_byte_ptr_[rbp+0x@@
movsd_xmm0_qword_ptr_[r@@
ja_0x4@@
jne_0x20@@
add_rbp_1,
_r13b,
e8@@
mov_dword_ptr_[rsp+0xc]_edx,
]_6,
je_0x49,
mov_r8_qword_ptr_[rip+0x2@@
ss@@
cmp_ecx_1,
ic
*8+0x@@
_rdi@@
jne_0x2a,
jmp_0xffffffffffffff7@@
sete@@
jne_0x25,
cmp_eax_0x7@@
and_rax@@
+rdx*2],
cmovbe@@
lea_rsi_[rsp+0x20],
mov_qword_ptr_[rbx]_0,
30]_rax,
movzx_eax_byte_ptr_[rbx],
mov_qword_ptr_[rbp-0x18]_rdx,
3e],
mov_dword_ptr_[rsp+0x2@@
or_ecx@@
_0x12,
mov_qword_ptr_[r13]_rax,
rep
_0x1c,
test_byte_ptr_[rdi+0x134]_4,
mov_rax_qword_ptr_[rbx+0x20],
mov_dword_ptr_[rsp+0xc]_0,
100@@
91],
]_0x4@@
jmp_0x12,
and_ebx@@
lock
mov_esi_r14d,
mov_qword_ptr_[rbp-0x40]_rax,
]_rbp,
mov_rbx_qword_ptr_[rax],
mov_ecx_dword_ptr_[rax],
repmgr
bx+@@
mov_r14_rcx,
99],
ax+4],
mov_rdi_qword_ptr_[rsp+0x38],
+rcx*@@
+rcx*4],
cmp_byte_ptr_[rbp-0x@@
mov_dword_ptr_[rdx]_eax,
14]@@
b8@@
mov_byte_ptr_[rbp@@
call_0xffffffffffffdf@@
jne_0x21,
13+0x18],
cmp_rdi@@
call_0xffffffffffffba@@
je_0x50,
lea_rdx_[rax-1],
register
sub
and_ebp@@
je_0x46,
mov_dword_ptr_[rsp+0x3@@
mov_eax_dword_ptr_[rax+0x18],
a4],
cmp_qword_ptr_[rip+0x@@
bp+@@
f2@@
8]_r14,
2e],
jb_0x1@@
mov_eax_dword_ptr_[r12+0x@@
lea_rsi_[rip+0x20@@
or_edx@@
mov_byte_ptr_[rax@@
c4@@
call_0xfffffffffffdc@@
di+@@
_0x13,
jne_0xffffffffffffffeb,
test_r11d_r11d,
13+1],
15+8],
je_0x55,
mov_qword_ptr_[rsp]_rdx,
+3],
je_0x4b,
mov_r8_rdx,
_0x68,
mov_r9_rbp,
3a],
cmp_byte_ptr_[rbx]_0,
bx+2],
mov_r8_rcx,
jne_0xffffffffffffffec,
mov_rsi_qword_ptr_[rbx+8],
a7@@
35],
add_r8@@
cmp_byte_ptr_[rsp+0x@@
0]_rbp,
_0xffff,
+8],
je_0x47,
mov_rax_qword_ptr_[rbp-0xd8],
_0xfffffffb,
mov_qword_ptr_[rsp+0x58]_0,
mov_qword_ptr_[rsp+0x78]_rax,
mov_r14d_1,
mov_esi_8,
df@@
mov_rsi_qword_ptr_[rsp+0x30],
sub_eax_edx,
48]_rax,
_0x3c,
mov_dword_ptr_[rsp+0xc]_ecx,
call_0x30@@
jmp_0x1b,
test_byte_ptr_[rip+0x@@
shl_rdx_4,
_r9b,
test_dword_ptr_[r@@
mov_dword_ptr_[rax]_0x16,
8]_0x4@@
dx+@@
b6@@
lea_rdi_[rsp+8],
mov_qword_ptr_[rsi+0x@@
movsxd_rsi@@
jmp_0x13,
0]_r8,
_-0x@@
_ax,
jne_0xffffffffffffffe6,
mov_rax_qword_ptr_[rip+0x22@@
jne_0x28,
jne_0x29,
mov_dword_ptr_[rsp+4]_0x30,
cmp_al_0x2@@
10+0x@@
si+@@
jne_0x24,
mov_rcx_qword_ptr_[rsp+0x58],
add_rsp_0xd8,
2b],
jne_0xffffffffffffffef,
mov_rdi_qword_ptr_[rsp+0x40],
movzx_eax_byte_ptr_[rax+0x@@
mov_dword_ptr_[rsp+0x7@@
call_0xffffffffffffb0@@
movsxd_rbx@@
cmp_qword_ptr_[rax+0x@@
xor_r10d_r10d,
lea_rcx_[rip+0x2@@
di+4],
je_0x56,
jne_0xffffffffffffffe8,
mov_esi_0xffffffff,
jmp_0x16,
add_r15@@
call_0xfffffffffffdb@@
movzx_ebx_byte_ptr_[r@@
jmp_0xc,
movups_xmmword_ptr_[rsp+0x@@
14+0x10],
mov_dword_ptr_[r13+0x@@
mov_r12_r8,
e4],
movzx_eax_word_ptr_[rax],
mov_qword_ptr_[rax+@@
mov_qword_ptr_[rbx+0x10]_rax,
lea_rsi_[rip+0xe@@
ax+0x1c],
mov_r8_r14,
mov_rax_qword_ptr_[rsp+0x40],
c9@@
movzx_edx@@
mov_dword_ptr_[rsp+0xc]_esi,
cmp_eax_edx,
mov_byte_ptr_[rdx@@
mov_qword_ptr_[rbp-0xe@@
mov_r13d_ecx,
mov_dword_ptr_[rsp+0x20]@@
mov_dword_ptr_[rsi+0x@@
mov_rsi_qword_ptr_[rbp],
mov_eax_0x6@@
call_qword_ptr_[rax],
imul_rax@@
15+0x10],
add_edx_1,
je_0x51,
mov_edi_dword_ptr_[rsp+0x@@
mov_r15_rdx,
3f],
59],
hash
mov_qword_ptr_[rdi]_rax,
_qword_ptr_[rip+0x2@@
mov_eax_dword_ptr_[rsp+0x14],
14]_0,
]_7,
je_0x4f,
or_eax_edx,
]_rdi,
_0x23,
15+1],
3]_0,
js_0x4@@
je_0x4e,
dx+0x18],
lea_rsi_[rbp-0x@@
b4@@
jne_0x2e,
51],
lea_rax_[rbp-0x20],
_0x2000,
call_0x37@@
jmp_9,
jne_0x2d,
cmp_qword_ptr_[rbx+0x68]_0,
movzx_ecx@@
_0x2c,
mov_rsi_qword_ptr_[rip+0x20@@
mov_r12d_ecx,
58]_rax,
je_0x57,
2d],
je_0x54,
a8@@
pxor_xmm1_xmm1,
mov_qword_ptr_[rsp+0x98]_rax,
mov_ecx_dword_ptr_[rbx+0x@@
mov_dword_ptr_[rsp+4]@@
_dword_ptr_[rbp-0x@@
bx*8],
mov_ecx_6,
add_rsp_0x78,
jne_0x2b,
mov_rdx_qword_ptr_[rsp+0x30],
error
]_xmm2,
buffer
mov_ecx_7,
mov_qword_ptr_[rbx+@@
sub_esi@@
movzx_eax_byte_ptr_[rdx],
9]@@
mov_r15@@
_ebx@@
movzx_eax_byte_ptr_[rbx+0x@@
f4@@
mov_qword_ptr_[rsp+8]@@
call_0xffffffffffffce@@
imul_eax@@
_rbp@@
mov_eax_dword_ptr_[r15+0x@@
cmp_dword_ptr_[rsp+0x1@@
mov_dword_ptr_[rsp+0x4@@
mov_r11_qword_ptr_[r@@
c8@@
call_0xfffffffffffe5@@
mov_rcx_qword_ptr_[rbx+0x@@
mov_rdi_qword_ptr_[rbx+0x20],
mov_rdx_-1,
test_byte_ptr_[rbx+0x1@@
mov_ecx_r14d,
add_rbp_8,
je_0x4c,
sub_rcx@@
mov_qword_ptr_[rsp+0x50]_rax,
2f],
jne_0xffffffffffffffe9,
10]@@
36],
bp-1],
jne_0xfffffffffffffff2,
lea_rcx_[rip-0x@@
mov_ecx_dword_ptr_[rip+0x2@@
movabs@@
mov_r14d_ecx,
27],
sub_rsi@@
mov_eax_dword_ptr_[rsp+0x18],
sub_rbx@@
61],
and_r12d@@
d7@@
call_0x3c@@
lea_rax_[rsp+0x30],
mov_rdx_qword_ptr_[rdx+0x@@
]_rcx,
jne_0x27,
mov_qword_ptr_[rbp-0x38]_rdx,
next
]_0x20,
_r14b,
mov_dword_ptr_[rdx@@
add_rsi_rax,
mov_eax_dword_ptr_[rax+0x1@@
mov_rdi_r9,
]_rsi,
mov_rbx_qword_ptr_[rsp+8],
23],
dns
jne_0x26,
+@@
_dword_ptr_[rsp+0xc],
call_0xfffffffffffde@@
value
mov_qword_ptr_[rsp+0x10]_rdx,
mov_esi_dword_ptr_[rip+0x2@@
call_0xffffffffffff9a@@
jne_0xffffffffffffffe7,
lea_rdi_[rsp+0x20],
mov_rax_qword_ptr_[rbp+8],
1]_al,
movsxd_rax_ebx,
test_al_4,
call_0x34@@
jne_0x2c,
_xmmword_ptr_[r@@
jmp_0x10,
_0x48,
_dword_ptr_[rbx+0x@@
mov_byte_ptr_[rsi@@
mov_dword_ptr_[rsp+0x1c]_eax,
call_0xffffffffffffaa@@
jmp_0xffffffffffffff6@@
]_si,
ax+0x38],
call_0xffffffffffffbc@@
00000,
jmp_0x18,
path
d6@@
v@@
a4@@
mov_qword_ptr_[rax+0x10]_0,
and_dword_ptr_[r@@
37],
jne_0xa@@
lea_rcx_[rax@@
sub_rsp_0x2@@
add_r12d_1,
dx+0x20],
mov_r14d_edx,
mov_ecx_dword_ptr_[rsp+0xc],
movsxd_rsi_esi,
8]_xmm0,
208],
mov_edi_dword_ptr_[rbx],
mov_rax_qword_ptr_[r15],
call_0xffffffffffffbd@@
mov_dword_ptr_[rsp+4]_0,
mov_rax_qword_ptr_[rbp-0x98],
call_0x3a@@
mov_dword_ptr_[rbp-0xc]_eax,
add_rax_4,
je_0x59,
b4],
je_0x53,
mov_r11@@
cmp_dword_ptr_[rax]@@
3d],
accounts
call_0xffffffffffff9c@@
lea_rdi_[rip+0xa@@
13+0x10],
_ecx@@
and_r8d@@
lea_rdx_[rsp+8],
je_4,
mov_rax_qword_ptr_[rsi],
mov_rdx_qword_ptr_[rbx+8],
lea_rdx_[rsp+0x20],
*2],
_0x24,
ax+@@
cmp_byte_ptr_[rdi]_0,
mov_dword_ptr_[rbp-4]_edi,
shr_ecx_3,
lea_r15_[rip+0x@@
add_rcx_1,
je_0x52,
lea_edx_[rax-1],
sub_rsp_0x88,
mov_ecx_8,
bx*@@
si+4],
jmp_0xfffffffffffffdd@@
mov_ecx_0x10,
type
bswap_eax,
je_0x58,
jmp_0xd,
mov_dword_ptr_[rsi@@
+rax*8],
mov_ecx_0x6@@
test_byte_ptr_[rdi+0x@@
test_byte_ptr_[rip+0x2@@
cx-1],
movzx_esi@@
jmp_0xffffffffffffe@@
add_edi@@
8+r@@
mov_dword_ptr_[rbx]_eax,
mov_dword_ptr_[rsi]_eax,
mov_rdi_qword_ptr_[r12+0x@@
mov_edi_0x1@@
cmp_al_0x2f,
mov_qword_ptr_[rsp+0x7@@
mov_rax_qword_ptr_[r14],
3b],
mov_dword_ptr_[rbx]@@
mov_rax_qword_ptr_[rsp+0x1@@
_0x58,
_eax@@
movzx_edi@@
lea_rsi_[rip+0x11@@
verify
lea_eax_[rax@@
je_0x61,
mov_rbx_rbp,
sub_ebx_1,
12+0x20],
mov_r9_r13,
cmp_byte_ptr_[rax]@@
mov_r8d_dword_ptr_[rsp+0x@@
mov_rbp_qword_ptr_[rdi],
bt@@
mov_esi_6,
movsxd_rbp@@
call_0xfffffffffffdf@@
_0x32,
ac],
b5@@
8]_r15,
add_rbx_rax,
lea_r10_[r@@
je_0xffffffffffffffeb,
mov_qword_ptr_[rbp-0x9@@
add_rax_0x20,
movsxd_rcx@@
call_0x38@@
lea_rdi_[rip+0x6@@
mh
33],
mov_rsi_qword_ptr_[rsp+0x38],
c5@@
lea_rsi_[rax@@
a6@@
mov_qword_ptr_[rbp-0x1@@
mov_rax_-0x@@
jmp_0xf,
mov_dword_ptr_[rsp+4]_esi,
mov_esi_0x10,
mov_qword_ptr_[rsp]@@
mov_rdx_r8,
call_0x1c@@
mov_rdi@@
cmp_esi_1,
_xmm0,
c4],
+rax]_0,
call_0xffffffffffffa0@@
mov_rax_qword_ptr_[rbp-0x4@@
mov_eax_dword_ptr_[rbp-0x34],
mov_rax_qword_ptr_[rbp+0x18],
4]_esi,
call_0xffffffffffff9b@@
mov_eax_dword_ptr_[rbp-0x2c],
add_r9@@
config
mov_qword_ptr_[rax]@@
ror@@
mov_dword_ptr_[r14+0x@@
mov_rax_qword_ptr_[rbp-0xb0],
_r13@@
add_rdi_1,
sar_eax_0x1f,
add_rdx_qword_ptr_[r@@
cmp_rsi_rax,
0]_ecx,
sub_rsp_0x4@@
mov_eax_dword_ptr_[rbp-0x10],
mov_r8_rsi,
jne_0x34,
line
call_0x3d@@
sub_rbp@@
_edx@@
bam
*4+0x@@
_byte_ptr_[rsi@@
inc_rbx,
mulsd@@
bx+0x14],
je_0x10@@
mov_r9_qword_ptr_[rsp+8],
mov_eax_dword_ptr_[rdi],
key
mov_rax_qword_ptr_[rbp-0x2@@
_0xfff,
jne_0xffffffffffffffe5,
bx-1],
d8@@
dx+rax],
lea_rdx_[rip+0x3@@
mov_ecx_esi,
mov_edx_dword_ptr_[rbp-0x24],
add_rax_rbx,
je_0x5a,
jne_0x30,
lea_rdi_[rip+0x10@@
mov_r9_r12,
test_bl@@
_edi@@
jne_0x2f,
mov_r8_qword_ptr_[rip+0x@@
mov_qword_ptr_[rsp+0x10]@@
je_0x6d,
jne_0xffffffffffffffe4,
38]@@
ax+0x14],
shl_rax_5,
mov_qword_ptr_[rsi@@
mov_r9@@
mov_rax_qword_ptr_[rsp+0x58],
sar_rdx@@
92],
si-1],
]_ecx,
call_0xffffffffffff9d@@
mov_qword_ptr_[rsp@@
call_0x36@@
mov_dword_ptr_[rsp+8]@@
mov_qword_ptr_[rcx+0x@@
95],
ja_0x5@@
mov_qword_ptr_[rbx+0x20]_rax,
jmp_0x1c,
0000000,
add_rax_2,
mov_qword_ptr_[rsp]_rcx,
bp+4],
jne_0xfffffffffffffff3,
mov_ecx_5,
f4],
_0x1a,
call_0x3b@@
mov_byte_ptr_[rip+0x20@@
49],
cmp_dil@@
inc_rax,
sp+0x@@
24]_0,
mov_qword_ptr_[rsp+0x20]@@
omapi
_0xfffffffffffffff0,
cmp_ebx_1,
_r14d@@
mov_dword_ptr_[rsp+0x14]@@
mov_rbx_qword_ptr_[rsp+0x18],
jmp_0x19,
0]_r12,
mov_ecx_0x@@
mov_rax_qword_ptr_[rbp-0xc0],
_0x19,
call_0x1b@@
mov_esi_dword_ptr_[rsp+0xc],
mov_rcx_qword_ptr_[rsp+0x38],
_0x1e,
and_r13d@@
call_0xffffffffffffcf@@
mov_qword_ptr_[rsp+0x88]_rax,
si+0x28],
call_0xffffffffffff97@@
mov_rax_r15,
mov_dword_ptr_[r13@@
c8]_0,
jne_0x31,
mov_rdx_qword_ptr_[rdx],
je_0xfffffffffffffff@@
mov_rsi_qword_ptr_[rax+8],
cmp_rax_rcx,
mov_rax_qword_ptr_[rbp-0xf0],
mov_rbp_r8,
_0x3b,
a5@@
mov_dword_ptr_[rbp-0x1c]_eax,
je_0x69,
mov_dword_ptr_[rbp@@
mov_r9_r14,
push_rdi,
d4],
mov_r15d_1,
movapd@@
_0x60@@
_r14@@
mov_rbx_qword_ptr_[rip+0x@@
jmp_0xa,
mov_r12@@
sub_rsp_0xa8,
call_0xffffffffffff9e@@
cmp_r9@@
mov_dword_ptr_[rsp+0x18]_eax,
mov_dword_ptr_[rsp+4]_eax,
jne_0xffffffffffffffe2,
jmp_0x17,
lea_rdi_[rip+0x7@@
mov_dword_ptr_[rdi+@@
lea_rsi_[rip+0x15@@
test_byte_ptr_[rax+0x1@@
90]_0,
_r8w,
call_qword_ptr_[rip+0x2@@
9a],
je_0x62,
js_0x3@@
_0xa0,
lea_rdi_[rax@@
1]_1,
]_9,
mov_qword_ptr_[rsp+0x10]_rcx,
or
lea_rdi_[rip+0x5@@
mov_rax_r14,
8+@@
call_0x1d@@
di+0x40],
je_0x8@@
mov_r8d_2,
add_rbx_0x10,
lea_rcx_[rsp+0x10],
mov_dword_ptr_[rsp+0x1c]@@
mov_rcx_rdi,
cmp_eax_0xa,
lea_rax_[rsp+0xe0],
mov_edx_dword_ptr_[rip+0x20@@
mov_edx_dword_ptr_[rbx],
mov_edx_r15d,
mov_rbp@@
movzx_r8d@@
_0x5f,
mov_eax_dword_ptr_[rdx],
cmp_qword_ptr_[rbp-0x20]_0,
call_0xfffffffffffff4@@
cmp_rbx_rbp,
mov_rdx_qword_ptr_[rsp+0x38],
mov_esi_0x42@@
mov_qword_ptr_[rsp+0x18]_rcx,
jne_0x3e,
mov_r9d_eax,
mov_rax_-1,
mov_rsi_qword_ptr_[rbx+0x18],
]_dil,
add_rdx_4,
_0x2b,
cmp_eax_5,
jne_0xfffffffffffffff4,
50]@@
cmp_qword_ptr_[rbp-0x28]_0,
mov_rdx_qword_ptr_[rbx+0x10],
je_0x63,
je_0x66,
mov_rdx_qword_ptr_[rbp],
lea_rsi_[rbx+0x@@
add_rdi_4,
sar_eax@@
210],
34]@@
cmp_al_9,
mov_rax_qword_ptr_[rsi+0x@@
mov_qword_ptr_[rbp-0x48]_rdi,
_0xffff8703,
lea_rdi_[rip+0xd@@
lea_rdx_[rax+0x@@
lea_rsi_[rip+0x9@@
mov_dword_ptr_[rsp+0x14]_eax,
jne_0x3b,
mov_dword_ptr_[rbp-0x5@@
_0x60,
jne_0x36,
je_0x65,
push_rsi,
mov_r8d_0x4@@
bc],
cmp_rax_qword_ptr_[rip+0x@@
inc_eax,
mov_rdx_qword_ptr_[rbx+0x18],
_r15b,
and_ecx_1,
mov_rcx_qword_ptr_[rbp-0x20],
add_rsp_0x40,
je_0x5f,
jne_0x32,
lea_rdi_[rip+0xb@@
mov_rax_qword_ptr_[rdi+0x10],
mov_qword_ptr_[rsp+0x28]_rsi,
test_sil@@
mov_eax_dword_ptr_[rbp-0x20],
bswap@@
lea_rdx_[rip+0x7@@
add_ebx@@
mov_edi_0x60@@
mov_r9d_dword_ptr_[rsp+0x@@
ucomisd@@
io
jmp_0xffffffffffffff5@@
_byte_ptr_[rsp+0x@@
mov_qword_ptr_[rsp+0x70]_0,
ec],
dec_eax,
42],
_[rax-1],
pp
mov_rax_qword_ptr_[rdx],
jne_0x35,
je_0x5b,
movsxd_rcx_ecx,
mov_qword_ptr_[rsp+0x10]_rsi,
mov_rbx_rsp,
shl_eax@@
mov_byte_ptr_[rax+r@@
13+0x20],
3]@@
mov_eax_dword_ptr_[rsp+0x1c],
call_0xffffffffffffe7@@
mov_dword_ptr_[rsp+0x5@@
_rsp,
jne_0x38,
_0xfffffffffffffff@@
_xmm3@@
cmp_dword_ptr_[rbp-4]_0,
je_0x72,
96],
mov_r12_rsp,
mov_eax_dword_ptr_[rdx+0x@@
_0x27,
mov_qword_ptr_[rsp+8]_r9,
mov_r8_r15,
je_0x64,
syscall,
]_0x10,
+1],
_byte_ptr_[rdi],
call_0x2a@@
cmova@@
je_0x60,
context
mov_eax_dword_ptr_[rdi+0x1@@
mov_rdi_r10,
shl_rax@@
ax+0x4@@
cil
mov_dword_ptr_[rsp+0x6@@
jmp_0x1d,
mov_dword_ptr_[rbp-0xd@@
mov_dword_ptr_[rsp+0x1c]_0,
mov_edx_edi,
dx+0x28],
97],
_xmm2@@
jne_0x39,
sub_rsp_0x@@
cdq,
mov_eax_dword_ptr_[rbp-0x18],
69],
]_ebx,
call_0xfffffffffffc0@@
mov_qword_ptr_[rbp-0x48]_rax,
mov_dword_ptr_[rbp]_eax,
call_0xfffffffffffe3@@
d5@@
mov_eax_dword_ptr_[rsi+0x@@
lea_rsi_[rip+0x16@@
80]_0,
call_0xfffffffffffffea@@
je_0x6a,
lea_rdi_[rip+0x12@@
movzx_edx_al,
add_ebp@@
call_0xfffffffffffffec@@
call_0xfffffffffffd7@@
movzx_ebx@@
copy
jmp_0x25,
cmp_byte_ptr_[rip+0x2@@
cmp_ebx_eax,
cmp_rax_rdi,
je_0x5c,
cmp_r10@@
jne_0xfffffffffffffff6,
call_0xfffffffffffbb@@
je_0x79,
mov_edi_r14d,
movsxd_r12@@
mov_r14@@
mov_qword_ptr_[rbx+0x18]_rax,
24]_1,
call_0xffffffffffef@@
je_0x67,
call_0xfffffffffffffed@@
mov_rdi_qword_ptr_[r13],
_0x25,
mov_ecx_3,
mov_dword_ptr_[rbp-0x1@@
mov_dword_ptr_[rbp-0x3@@
12+0x28],
2+1]_0x20,
]_xmm3,
and_r9d@@
call_0xffffffffffffe8@@
_eax_edx,
mov_qword_ptr_[rbp-0xa@@
_r8@@
jne_0x44,
movaps_xmmword_ptr_[r@@
mov_dword_ptr_[rbx@@
remove
12+4],
and_rsp_0xfffffffffffffff0,
call_0xfffffffffffffeb@@
mov_ecx_0x5@@
mov_rax_qword_ptr_[rbp-0x90],
cx+0x10],
hlt
mov_rbx_qword_ptr_[rsp+0x28],
call_0xfffffffffffffdd@@
cc],
mov_dword_ptr_[rbp+@@
mov_qword_ptr_[r13+0x1@@
93],
je_0x6c,
mov_esi_0x100,
cmp_eax_9,
mov_r13_r8,
+0x10],
mov_rdx_qword_ptr_[rax+0x20],
cmp_al_0x20,
lea_r12_[rsp+0x10],
push_rsp,
-1]@@
je_0x5e,
mov_byte_ptr_[rip+0x@@
mov_eax_dword_ptr_[rsp],
mov_dword_ptr_[rsp+0x18]@@
_xmm1_xmm0,
txn
8]_2,
add_eax_eax,
89],
9e],
mov_rdi_qword_ptr_[rbx+0x1@@
15+0x20],
lea_ecx_[rax@@
option
update
_0xfffffffd,
mov_esi_0x80,
movsxd_r13@@
test_al@@
14+0x18],
40]_1,
mov_r12d_0xffffffff,
_0x21,
mov_rax_qword_ptr_[rsp+0x50],
from
mov_rdi_qword_ptr_[r12+8],
jne_0xffffffffffffffdb,
mov_rax_qword_ptr_[rbx+0x120],
mov_qword_ptr_[rsp+0x68]_0,
call_0xffffffffffffad@@
jmp_0xffffffffffffd@@
40]_rax,
mov_ecx_r15d,
jne_0x51,
cmp_dword_ptr_[rsp+@@
mov_qword_ptr_[rsp+0x18]_rdx,
cmp_dword_ptr_[rbp-@@
mov_esi_dword_ptr_[rbx+0x@@
builtin
cmp_rdx_rcx,
mov_dword_ptr_[rsp+0x14]_0,
movzx_edi_word_ptr_[r@@
d_eax,
sub_dword_ptr_[rbp-0x@@
mov_qword_ptr_[rsp]_rdi,
mov_dword_ptr_[r12@@
call_0xffffffffffffbe@@
je_0x6e,
sub_rsp_0x98,
and_eax_4,
]_esi,
mov_dword_ptr_[rax@@
mov_eax_dword_ptr_[rax+0xc],
add_r12_1,
+rdx+0x@@
add_edx_eax,
lea_rax_[rsp+0x40],
lea_rdx_[rip+0x14@@
cmp_byte_ptr_[rbx+0x@@
cmp_eax_0x4@@
jmp_0xfffffffffffe@@
lea_rdi_[rip+0xc@@
movzx_eax_byte_ptr_[rsp+0x@@
sete_cl,
sub_rsp_0x80,
add_rsp_0x80,
2]_ax,
b8]_0,
call_0xffffffffffff90@@
err
size
je_0x76,
jne_0x5@@
di+0x158],
je_0x6b,
or_eax_1,
mov_ebx_ecx,
001,
9b],
cmovle@@
_byte_ptr_[rbx],
call_0xfffffffffffffee@@
mov_byte_ptr_[rbp+0x@@
mov_rdi_qword_ptr_[rdi+0x10],
imul_edx@@
mov_edi_0x42@@
di+0xc],
sub_edx_1,
218],
cmp_rax_rbx,
jne_0x3c,
jne_0xfffffffffffffea@@
mov_rdx_qword_ptr_[rdi+0x@@
call_0x1e@@
ax+0x48],
9f],
_rax@@
cmp_eax_0xffff86f4,
mov_edi_dword_ptr_[rip+0x20@@
81],
jne_0x7@@
lea_rbp_[rsp+0x10],
mov_dword_ptr_[rax+0x10]_1,
mov_word_ptr_[rbx+0x@@
-0x10],
mov_eax_0x7f2bb@@
add_rsp_0x88,
dx+4],
mov_esi_r15d,
cmp_rbp_rax,
lea_rsi_[rip+0xf@@
_qword_ptr_fs:[0x28],
lea_rsi_[rip+0x18@@
jmp_0x1a,
jmp_0xfffffffffffffc@@
add_rax_0x18,
jne_0x37,
2c]_0,
79],
968],
call_0xffffffffffffac@@
mov_edi_0x18,
mov_rdx_qword_ptr_[rbp-0x40],
mov_ecx_dword_ptr_[rax+4],
bx]@@
fc],
jne_0xffffffffffffffda,
mov_dword_ptr_[rbp-0x1c]_esi,
mov_eax_dword_ptr_[rbp-8],
jne_0xffffffffffffffe3,
mov_byte_ptr_[rbx@@
mov_dword_ptr_[rsp+0x10]@@
sub_edi@@
71],
mov_qword_ptr_[rbp-0x40]_rsi,
12+@@
and_eax_0x80808080,
call_0xffffffffffff8a@@
mov_dword_ptr_[rsp+0x8@@
call_0x2c@@
mov_ecx_dword_ptr_[rax+0x@@
mov_rax_qword_ptr_[rbp-0xe8],
f9],
jne_0x33,
add_rsi_1,
cmp_al_0xa,
cmp_r10d@@
mov_edx_dword_ptr_[rsp+8],
jne_0xffffffffffffffde,
lea_rdi_[rip-0x@@
mov_rbp_rbx,
add_rdx_rcx,
mov_eax_dword_ptr_[r14+0x@@
mov_ebp_ecx,
mov_edi_edx,
sub_r8d@@
_0x3ff,
_r15@@
bp-8],
sub_ebp@@
12]@@
je_0x68,
mov_rcx_qword_ptr_[rbx],
sub_rsp_0x60,
mov_r12d_edi,
110],
mov_rcx_qword_ptr_[rsp+0x20],
e8]_0,
je_0x70,
mov_dword_ptr_[rbp-@@
test_eax_0x8080,
8]_ebx,
mov_qword_ptr_[rbp-0x2@@
mov_rdi_qword_ptr_[rbp+0x10],
mov_rdx_qword_ptr_[rbp-0x48],
sub_ebx@@
8]_ebp,
mov_qword_ptr_[rsp+0x8@@
113@@
call_0xfffffffffffcd@@
mov_rax_qword_ptr_[rbp-0xa0],
call_qword_ptr_[rbp+0x@@
cmp_al_1,
entry
je_0x75,
mov_qword_ptr_[rax+0x20]_rdx,
7]_0,
mov_byte_ptr_[rdx+@@
add_rsp_0xa8,
jmp_0xffffffffffffff4@@
mov_ebx_0xffffffff,
call_0x16@@
movsxd_r14@@
5]_0,
test_ax_ax,
428],
movsxd_rcx_eax,
46],
call_0x17@@
mov_qword_ptr_[r14]_rax,
mov_byte_ptr_[rsp@@
f1],
lea_rdi_[rip+0x14@@
mov_rdi_qword_ptr_[rax+r@@
cmp_edi_1,
jne_0xffffffffffffffe0,
mov_r8d_ebx,
movabs_rcx@@
c0]_0,
mov_word_ptr_[rbp-0x@@
sub_qword_ptr_[rbp-0x@@
98]_0,
mov_ecx_0x3@@
si-0x@@
call_0x12@@
mov_eax_4,
mov_eax_dword_ptr_[rax+0x20],
mov_r13@@
recover
alloc
34]_0x20,
mov_r15_rcx,
or_qword_ptr_[r@@
add_rax_rsi,
_r13d@@
call_0xffffffffffff80@@
jne_0xffffffffffffffd8,
mov_qword_ptr_[r15+0x1@@
movzx_r9d_byte_ptr_[r@@
ja_0x7@@
mov_eax_0x60003,
ja_0xfffffffffffffe@@
lea_rsi_[rip+0x1a@@
62@@
_xmm1@@
call_0xffffffffffff8c@@
cmp_dword_ptr_[rax+0x@@
mov_esi_dword_ptr_[rbp-0x@@
je_0x73,
call_0xfffffffffffffe0@@
call_0xffffffffffff94@@
mov_eax_dword_ptr_[r13+0x@@
mov_dword_ptr_[rsi+@@
call_0xffffffffffffbf@@
cmp_edx_2,
jne_0x3a,
jne_0x41,
_sil,
jmp_0x24,
ax+0x50],
call_0xffffffffffff8b@@
jne_0x6@@
mov_dword_ptr_[rcx@@
movzx_eax_byte_ptr_[rdi],
sub_rcx_rax,
_0xfffffffc,
jne_0x40,
lea_eax_[rdx@@
lea_rsi_[rip+0x19@@
mov_eax_0x40,
mov_rsi_qword_ptr_[rsi],
call_0xffffffffffff87@@
call_0xffffffffffff96@@
lea_r13_[rsp+0x10],
_0x2a,
cmp_rcx_rax,
lea_rsi_[rip+0x17@@
mov_qword_ptr_[rsp+0x18]_rsi,
mov_qword_ptr_[rsp+0x10@@
cmp_rbx_r12,
je_0x77,
jne_0x3d,
f]_0,
mov_eax_dword_ptr_[rbx+8],
je_0x7e,
lea_rdx_[rip+0x4@@
cmp_ebp_1,
mov_r8d_ecx,
44]_0,
call_0xffffffffffeb@@
jmp_0xfffffffffffffff@@
mov_r8d_0xffffffff,
dm
mov_rsi_qword_ptr_[r13],
shl_edx@@
call_0xffffffffffff8d@@
9+r@@
dc],
add_ecx_1,
mov_qword_ptr_[rbp-0x20]@@
ham
mov_qword_ptr_[rbx+8]_0,
and_eax_0xffffff@@
cmp_dx@@
mov_edx_0x40,
_[rdx+1],
idiv@@
]_r12,
setne_dl,
call_0xffffffffffffab@@
6]@@
call_0xfffffffffff4@@
shl_rsi@@
cmp_qword_ptr_[rbx+0x1@@
je_0x74,
lea_rdi_[rip+0x8@@
cmp_edx_dword_ptr_[r@@
mov_dword_ptr_[rsp]_0,
mov_rbx_r8,
cmove_eax_edx,
mov_rsi_qword_ptr_[rsp+0x40],
4a],
mov_rcx_qword_ptr_[rax+8],
mov_edx_dword_ptr_[rax+0x18],
sub_rsi_rdi,
bx+0x1c],
test_al_8,
50]_rax,
je_0x78,
jne_0xffffffffffffffe1,
mov_dword_ptr_[rbp-0x14]_edi,
_0x88,
jne_0xffffffffffffffd6,
call_0xfffffffffffffcc@@
cmp_dword_ptr_[rbp-0x14]_0,
mov_r8_qword_ptr_[rsp],
shl_eax_8,
mov_dword_ptr_[r12]_eax,
call_0xfffffffffffce@@
mov_r9_r15,
_0x29,
mov_qword_ptr_[rbp-0xf@@
mov_rax_qword_ptr_[rax+r@@
mov_dword_ptr_[rbp-0x24]_eax,
mov_esi_0x1000,
mov_esi_0x40,
13+4],
_0x7fffffff,
_dil,
cmp_dword_ptr_[rip+0x20@@
a8]_0,
bp+0x28],
call_0x3e@@
pop_r8,
call_0xfffffffffffca@@
lea_rdx_[rbp-0x20],
mov_eax_dword_ptr_[rbp],
000000,
add_rsp_0x98,
mov_edi_0x@@
mov_rcx_r8,
*4],
lea_rcx_[rax+1],
_qword_ptr_[rsp+0x38],
lea_rax_[rbp-0x40],
mov_eax_0xffff8703,
cmp_al_0x2d,
jg_0x@@
cmp_dword_ptr_[rax+0x1@@
mov_eax_dword_ptr_[rsp+0x10],
not_ecx,
5a],
cmp_r12d_1,
ax+0xc],
mov_dword_ptr_[rsp+0x28]_eax,
mov_qword_ptr_[rbp-0xc@@
call_0xfffffffffffcb@@
jmp_0x1f,
mov_qword_ptr_[rax+r@@
and_r14d@@
e9],
add_rcx_rax,
jne_0x3f,
lea_ecx_[rdx@@
lea_rdi_[rip+0x13@@
test_bpl_bpl,
cvttsd2si@@
jmp_0x1e,
shl_ecx@@
0]_r9,
5e],
and_eax_8,
cmp_eax_7,
e1],
call_0xffffffffffff6c@@
68]_rax,
400],
lea_rcx_[rsp+8],
memp
52],
lea_ecx_[rax+1],
mov_rdi_qword_ptr_[rsp+0x48],
jne_0xffffffffffffffdc,
cmp_byte_ptr_[rbx+@@
_@@
call_0x2d@@
mov_rax_qword_ptr_[rax+0x48],
sub_rdi@@
jmp_0x22,
mov_dword_ptr_[r12+0x1@@
mov_r14_r8,
sar_edx@@
60]_rax,
mov_edx_edx,
mov_qword_ptr_[rsp+0x60]_rax,
]_xmm4,
test_byte_ptr_[rsp+0x@@
mov_rdx_qword_ptr_[rsp+0x40],
mov_rsi_qword_ptr_[rbx+0x10],
mov_rbp_qword_ptr_[rip+0x2@@
char
cmp_rcx_rdx,
cmp_rdi_rbx,
jne_0x48,
call_0x14@@
lea_r8d_[r@@
sub_r12@@
tree
82],
jne_0xffffffffffffffdf,
mov_rax_qword_ptr_[rax+0x50],
408],
deregister
mov_rsi_r9,
call_0x2b@@
ja_0x6@@
mov_r8d_0,
11+0x@@
3c]_0,
isc
78]_0,
_r9d@@
mov_dword_ptr_[rsp+0x28]@@
version
mov_rcx_qword_ptr_[rbp-0x10],
0]_r13,
di-0x@@
mov_esi_0x16,
8]_-1,
]_xmm5,
cmp_r14d_1,
14]_1,
lea_rdx_[rip+0x13@@
mov_edi_0x7@@
movdqa_xmm0_xmmword_ptr_[r@@
sbb_rax_rax,
call_0xffffffffffff98@@
45],
je_0x7d,
jne_0xffffffffffffffdd,
mov_qword_ptr_[rbp]_0,
+rcx*8],
18]@@
6]_0,
mov_byte_ptr_[rax+0x1@@
mov_rdx_qword_ptr_[rsp+0x@@
_0xfff@@
mov_qword_ptr_[rsp+0x10]_rdi,
8a],
10+r@@
_r10d@@
delete
ud2,
lea_rsi_[rsp+0x30],
mov_rcx_qword_ptr_[rax+0x@@
cx+4],
call_0xffffffffffff88@@
_qword_ptr_[rsp],
_r15d@@
mov_dword_ptr_[rax+0x10]_edx,
_0x108,
4]_4,
lea_rax_[rip+0x22@@
5d],
di+0x38],
mov_edx_dword_ptr_[rbp+0x10],
movzx_edx_dl,
bx*4],
cmp_dword_ptr_[rax@@
di+0xe0],
je_0x71,
seta@@
cx+rax],
mov_qword_ptr_[rbp+8]_rax,
57],
mov_r14d_esi,
add_r15_1,
add_rsp_0x4@@
_bpl,
je_0x7a,
output
_-0x80,
mov_qword_ptr_[rsp+0xa8]_rax,
not_eax,
jne_0xffffffffffffffd7,
mov_rcx_qword_ptr_fs:[0x28],
mov_esi_dword_ptr_[rip+0x@@
2]_al,
call_0x40@@
cmp_qword_ptr_[rbp-0x38]_0,
_0x10000,
_qword_ptr_[rsp+0x30],
mov_rdi_qword_ptr_[rdi+0x30],
search
add_rsi_qword_ptr_[r@@
mov_rcx_qword_ptr_[rbp-0x18],
a0]_0,
add_rsp_0x2@@
mov_r8d_edx,
gr
je_0x7c,
jne_0x45,
jne_0x46,
call_0xffffffffffffae@@
mov_ecx_dword_ptr_[rip+0x@@
mov_byte_ptr_[rsp+r@@
sub_ecx_eax,
114@@
4e],
call_0xfffffffffff9c@@
_esi@@
lea_rdx_[rsp+0x18],
jne_0xffffffffffffffd5,
mov_rax_qword_ptr_[rax+0x60],
call_0xffffffffffffe6@@
movzx_eax_byte_ptr_[rip+0x2@@
112@@
24]@@
mov_qword_ptr_[rcx]_rax,
movzx_ebp@@
4]_0xffffffff,
88]_0,
call_0x2e@@
mov_ecx_dword_ptr_[rdx],
mov_edx_6,
40]@@
+rax+@@
6a],
_0xfe,
_0x3e8,
cmp_rax_rsi,
je_0x6f,
mov_qword_ptr_[rax+0x18]_0,
mov_rcx_qword_ptr_[rbp+0x@@
mov_rdi_qword_ptr_[r15],
jmp_0xffffffffffffff3@@
jne_0x4d,
rol@@
call_0xffffffffffff86@@
call_0xfffffffffffd6@@
call_0xffffffffffff70@@
dir
pkc
sub_rsp_0xb8,
jmp_0xffffffffffffffb0,
lea_rdx_[rip+0x6@@
mov_esi_0x4b@@
call_0xfffffffffffe2@@
cmp_dword_ptr_[rbp-0x1c]_0,
mov_edx_0x20,
8]_0xffffffff,
lea_ebx_[r@@
sub_rsp_0x1000,
test_edx@@
110@@
_xmm0_xmm2,
jmp_0x20,
movsx_esi_byte_ptr_[r@@
cmd
lea_rsi_[rip+0x1b@@
or_rax@@
ucomi@@
cmp_qword_ptr_[rdx@@
jne_0x49,
mov_qword_ptr_[rbp-0xd@@
56],
mov_eax_dword_ptr_[rbp-0x44],
mov_rax_qword_ptr_[rip+0x23@@
a9],
call_0xfffffffffffb0@@
mov_dword_ptr_[rdi]_0,
mov_qword_ptr_[rsi]_rax,
jne_0x43,
mov_word_ptr_[rsp+@@
je_0x7b,
mov_r8_qword_ptr_[rsp+0x10],
add_rsp_0x@@
not@@
state
_r9w,
mov_rdi_qword_ptr_[rsp+0x50],
add_r10@@
jb_0x@@
je_0xfffffffffffffea@@
lea_rdx_[rsp+0x40],
mov_edx_dword_ptr_[rsp+0x1c],
+rax*8@@
_0x61,
add_r13d_1,
_rsi@@
mov_eax_0xfffffffe,
jmp_0xb,
lea_rdi_[rip+0x15@@
lea_rax_[rsp+0x1@@
movss@@
62],
mov_rcx@@
lea_rdx_[rip+0xc@@
lea_rsi_[rsp+0x18],
seta_dl,
_0xfffffff@@
mov_rax_qword_ptr_[rdi+0x20],
mov_qword_ptr_[rbp-0x50]_rax,
3]_al,
+rax]@@
jne_0x42,
mov_ecx_dword_ptr_[rsp+8],
push_r8,
mov_esi_0x41c@@
mov_rbx_qword_ptr_[rbx+8],
mov_rax_qword_ptr_[rbp+0x20],
_0xfffffffffffffff8,
call_0xffffffffffff7a@@
je_0x96,
mov_esi_edi,
mov_qword_ptr_[rbp-0xb8]_rax,
mov_qword_ptr_[rsp+0x18]_rdi,
call_0xffffffffffff6b@@
4d],
cmp_byte_ptr_[rax+@@
20]_eax,
_rdx@@
b9],
cmp_qword_ptr_[rbp-0x30]_0,
5c]_0,
lea_rdx_[rax+8],
test_dl@@
test_r12b_r12b,
call_0xffffffffffff6d@@
call_qword_ptr_[rip+0x@@
mov_rdx_qword_ptr_[rdi],
43],
mov_esi_0x50,
28]_eax,
_r10b,
jne_0x47,
mov_rax_qword_ptr_[rdx+0x@@
put
divsd@@
jne_0x4b,
mov_rax_qword_ptr_[rsi+0x10],
4c]_0,
_r12d_eax,
mov_rax_qword_ptr_[rdi+0x1@@
12]_0,
call_0xfffffffffffd4@@
cmp_al_0x7@@
inc_dword_ptr_[r@@
mov_dword_ptr_[rsp+8]_0,
mov_qword_ptr_[rsp]_r8,
mov_r13_rsp,
sub_r8@@
_0x4000,
cmp_r12_rax,
13+@@
bp+0x30],
_rcx@@
mov_dword_ptr_[rsi+0x1@@
movsxd_r8@@
mov_qword_ptr_[r14+0x1@@
cmovg@@
mov_qword_ptr_[rbx+0x10]_0,
usage
test_cl@@
*4@@
mov_dword_ptr_fs:[r@@
mov_r12_qword_ptr_[rax],
call_0x1f@@
cmp_eax_6,
movzx_eax_byte_ptr_[rsi],
_0xffff86@@
jne_0xffffffffffffffd9,
lea_rsi_[rip+0x1c@@
make
mov_r12_qword_ptr_[rdi],
60]@@
mov_qword_ptr_[rsi+0x1@@
cmp_dword_ptr_[rdi+0x@@
mov_qword_ptr_[rbp-0x68]_rax,
12-1],
mov_esi_0x3a,
mov_rsi_qword_ptr_[rbp-8],
zn5db
mov_rax_qword_ptr_[rbx+0x28],
sp+r@@
add_rdi_qword_ptr_[r@@
14+0x20],
lea_rdi_[rbp-0x@@
jge_0xffffffffffffff@@
call_0x50@@
data
movsx_esi@@
115@@
]_xmm6,
_ymm@@
_0x17,
je_0x80,
stat
0]_0x4@@
lea_rax_[rsp+0xf0],
mov_eax_dword_ptr_[r12],
mov_eax_dword_ptr_[rdi+8],
bx+rax],
call_0xffffffffffffe5@@
_xmm1,
a1],
mov_qword_ptr_[rax+0x28]_rdx,
lea_rdx_[rip+0xd@@
mov_dword_ptr_[rdx+0x1@@
mov_qword_ptr_[rbp-0x58]_rax,
je_0x9d,
jbe_@@
mov_rax_qword_ptr_[rbx+0x1@@
movsxd_r15@@
si*4],
add_rax_0x28,
lea_rdx_[rdx@@
shr_rsi@@
jmp_0x23,
mov_rdi_qword_ptr_[rbx+0x28],
54]_0,
bx+0x40],
jmp_0xffffffffffffffc0,
je_0x81,
lea_r12d_[r@@
test_bpl@@
,
movsxd_rcx_dword_ptr_[r@@
shr_ecx_0x10,
call_rcx,
e]_0,
6d],
mov_dword_ptr_[rbp-0x10@@
55],
5f],
call_0x15@@
lea_rdi_[rbp+0x@@
call_0x27@@
cvtsi2sd_xmm0@@
jne_0xffffffffffffffcf,
mov_dword_ptr_[rbp-0xc@@
50]_1,
movsx_edi_byte_ptr_[r@@
15+0x18],
jne_0x5e,
movsd_xmm1_qword_ptr_[rip+0x@@
add_rsp_0x50,
jne_0xfffffffffffffff5,
mov_rsi_r10,
quotearg
0]_0x40@@
11d@@
mov_dword_ptr_[rsp+0xc]_r8d,
mov_rax_rsp,
mov_rsi_qword_ptr_[rbp+8],
command
4f],
8]_8,
]_xmm7,
call_0xffffffffffff6a@@
e2],
lea_rdi_[rip+0x16@@
movabs_rax_0x1@@
_0x3e,
_qword_ptr_[rsp+0x@@
add_rdi_2,
cmp_rax_-0x@@
movsxd_r9@@
85],
_0x15,
_0x80@@
cmp_qword_ptr_[rax+0x1@@
mov_rdx_qword_ptr_[rax+0x28],
0]_xmm0,
func
jmp_0xffffffffffffffb8,
5b],
jmp_0xffffffffffffffa0,
cmp_eax_8,
lea_rax_[rbp-0x30],
mov_rax_qword_ptr_[rax+0x58],
cmp_byte_ptr_[rcx@@
mov_eax_dword_ptr_[rbp-0x3c],
mov_qword_ptr_[rsp+0x80]_0,
mov_rax_qword_ptr_[rbp+0xe0],
mov_rdi_qword_ptr_[r13+8],
session
8]_0x10,
and_eax_3,
mov_r8d_dword_ptr_[rsp+0xc],
b1],
call_0xfffffffffffcc@@
cmp_dword_ptr_[rbp-0x24]_0,
mov_eax_0x40@@
mov_ecx_0x400,
mov_edx_dword_ptr_[rsp+4],
mov_r8d_edi,
test_r13b_r13b,
7a],
call_0x13@@
mov_edi_0x28,
mov_r12_qword_ptr_[rip+0x@@
mov_rax_qword_ptr_[rsp+0x68],
4]_ebx,
63],
_r11d@@
call_0xfffffffffff9d@@
cmp_qword_ptr_[r12+0x@@
cmp_r13d_1,
cmp_r8b@@
lea_ebx@@
_0x31,
call_qword_ptr_[rbx+0x@@
imul_rax_rax@@
mov_ecx_dword_ptr_[rbp+0x@@
mov_qword_ptr_[r15@@
test_ah_4,
cmp_byte_ptr_[rbp]_0,
d0]_0,
jmp_0xffffffffffffff90,
lea_rdx_[rax+4],
_qword_ptr_[rsp+0x28],
cmp_dword_ptr_[rbx+0x1@@
call_0xfffffffffffffc0@@
0]_r14,
2]_1,
_0x1b,
lea_rdi_[rax-0x18],
mov_eax_dword_ptr_[rbx+4],
id
movaps_xmmword_ptr_[rsp+0x1@@
sar_rsi_1,
int
lea_rdx_[rip+0x5@@
mov_dword_ptr_[rsp+0x20]_eax,
str
add_r14d_1,
je_0xa@@
lea_rax_[rsp+0x50],
lea_rbx_[rsp+0x10],
b0]_0,
+8]_rdx,
mov_ecx_0x20,
test_r10_r10,
86],
66],
movsx_edx_byte_ptr_[r@@
_cx,
mov_eax_dword_ptr_[rsi],
lea_rdx_[rip+0xb@@
mov_rdi_qword_ptr_[rax+0x10],
mov_rsi_qword_ptr_[rax+0x@@
inc_ebx,
mov_dword_ptr_[r15@@
mov_edi_0x41c@@
mov_rdi_qword_ptr_[r14],
add_rdx_8,
call_0x8a@@
call_0xfffffffffff9a@@
cmp_rbp_rbx,
mov_rcx_qword_ptr_[rsp+0x48],
sub_rax_rdi,
c9],
jne_0x4e,
mov_edx_0x400,
a]_0,
call_0xffffffffffff67@@
mov_rdi_qword_ptr_[rbx+0x30],
8]_4,
8e],
cmp_bpl@@
mov_edx_dword_ptr_[rbp-0x28],
mov_r10d_eax,
mov_r8_qword_ptr_[rax+8],
and_eax_0xfffffff@@
jmp_0x21,
6e],
add_r8d@@
jmp_0x26,
mov_rcx_qword_ptr_[rsp+0x1@@
movzx_r9d@@
_cl@@
cmp_qword_ptr_[rsp+8]_0,
fa],
lea_r14@@
mov_esi_0x41d@@
98]_rax,
34]_1,
47],
]_bl,
mov_rsi_qword_ptr_[rsp+0x48],
sar_rax_3,
cmp_rax_qword_ptr_[rbp-8],
mov_eax_3,
2c]_1,
je_0x93,
4]_al,
_r10@@
_xmm5@@
add_rax_0x6@@
bx-0x@@
call_qword_ptr_[rax+0x10],
_0x41,
sub_r14@@
13]_0,
call_0xffffffffffffd7@@
call_0xfffffffffff9e@@
mov_rdx_qword_ptr_[rbx+0x20],
call_0xfffffffffffd9@@
and_rax_0xfffffffffffffffa,
lea_rax_[rax+rax*2],
lea_rdi_[rsp+0x30],
mov_rdi_qword_ptr_[rax+0x@@
65],
bx+0x38],
jmp_0x28,
mov_dword_ptr_[rsp+@@
movsxd_rax_dword_ptr_[rdx+rax*4],
mov_esi_5,
418],
jmp_0xffffffffffffffd0,
mov_rax_qword_ptr_[rip+0x27@@
13+0x28],
2+1]_8,
call_0xfffffffffffa0@@
call_0xffffffffffff8e@@
lea_rdx_[rsp+4],
table
00]_0,
je_0x99,
movzx_edx_byte_ptr_[rdx],
-1]_0,
72],
mov_rbx@@
window
l@@
mov_edx_dword_ptr_[rax+8],
call_0xfffffffffffd8@@
cmp_qword_ptr_[rip+0x20@@
lea_rax_[rbp+0x10],
jmp_rax
lea_rdi_[rsp+0x40],
mov_r12_qword_ptr_[rip+0x2@@
sub_eax_0x30,
bx+0xc],
c1],
cmovs@@
cmp_dword_ptr_[rdi]_0x4@@
mov_byte_ptr_[rbx+0x1@@
mov_qword_ptr_[rbp-0xc8]_rax,
cmovb@@
mov_ecx_0x100,
sysfs
call_0xfffffffffff9b@@
mov_ecx_r8d,
mov_edx_0x1000,
cvtsi2sd_xmm1@@
shl_rbx_4,
4b],
53],
mov_rdx_qword_ptr_[r12],
cmp_byte_ptr_[rip+0x@@
lea_rdx_[rip+0x8@@
_qword_ptr_[rsp+0x10],
bp-4],
f2],
jmp_0xffffffffffffffa8,
mov_eax_dword_ptr_[rsp+0x28],
mov_r12_rbx,
_-2,
cmp_qword_ptr_[rdi+0x1@@
jne_0x4a,
mov_dword_ptr_[rsp+8]_ecx,
xor_r11d_r11d,
call_0x2f@@
call_0xffffffffffff5c@@
mov_qword_ptr_[rsp+0x10]_r8,
movsd_xmm0_qword_ptr_[rip+0x@@
xkb
mov_ebp_0xffffffff,
87],
jne_0xffffffffffffffd1,
movzx_r8d_word_ptr_[r@@
cmp_ecx_dword_ptr_[r@@
lea_rsi_[rip+0x1d@@
mov_edi_r15d,
_r12w,
mov_dword_ptr_[rsp+0x10]_0,
mov_rdx_r9,
mov_byte_ptr_[rsi+0x@@
_qword_ptr_fs:[0x@@
je_0x95,
mov_qword_ptr_[rcx+0x1@@
mov_r9_rdi,
jne_0x50,
lea_rdx_[rip+0xa@@
mov_rax_qword_ptr_[rax*8+0x@@
cmp_rdx_qword_ptr_[r@@
15+@@
call_0xffffffffffff60@@
cache
je_0x7f,
jmp_0xffffffffffffffb2,
mov_esi_dword_ptr_[rax+4],
jne_0xffffffffffffffcb,
mov_rax@@
call_0x6b@@
call_0xffffffffffff5d@@
30]_eax,
mov_esi_dword_ptr_[rbp-0x1c],
mov_esi_0x41b@@
mov_r8d_r12d,
test_byte_ptr_[rdi+0x1@@
movdqu_xmm1_xmmword_ptr_[r@@
call_0xffffffffffff5a@@
call_qword_ptr_[rax+0x18],
83],
lea_rsi_[rip+0x24@@
jmp_0xffffffffffffff2@@
lea_r8@@
mov_word_ptr_[rax+@@
e5],
in
bswap_edx,
call_0x70@@
mov_rax_qword_ptr_[rdi+0x18],
mov_rsi_qword_ptr_[rdi+0x@@
cmp_rdx_rsi,
f5],
mov_qword_ptr_[rsp+0x78]_0,
je_0xffffffffffffffea,
jne_0x54,
jne_0xffffffffffffffd4,
dx+rax*8],
mov_rax_qword_ptr_[rbp-0xd0],
movsd_qword_ptr_[rsp+0x@@
text
call_0x66@@
je_0x8d,
sd_xmm0_qword_ptr_[rip+0x@@
75],
and_rdi_0xfffffffffffffff8,
f6],
jne_0xffffffffffffffd0,
lv
mov_byte_ptr_[rbp-@@
mov_rax_qword_ptr_[r12+8],
imul_edx,
lea_rdx_[rbx+0x@@
_-3,
call_0xffffffffffffaf@@
8]_r12d,
addsd@@
mov_rax_qword_ptr_[rbp-0xf8],
movzx_ebp_byte_ptr_[r@@
+rax-1],
1]_rax,
7d],
mov_qword_ptr_[rsp+0x30]@@
mov_rbp_qword_ptr_[rip+0x@@
mov_qword_ptr_[rsp+0x30]_rsp,
mov_rax_qword_ptr_[rip+0x210@@
reset
lea_rdx_[rip+0x10@@
cmp_dword_ptr_[rbp-0xc]_0,
jmp_0x27,
mov_r8d_ebp,
d9],
170@@
add_r13_1,
add_r14_1,
call_0xffffffffffff4a@@
cmp_eax_0xd,
cmp_qword_ptr_[r15+0x@@
je_0x92,
cmp_eax_0x@@
jne_0x5b,
jne_0xffffffffffffffd2,
shr_ecx@@
67],
setg@@
*@@
6f],
jne_0x56,
mov_edi_5,
sub_rsp_0xd0,
or_dword_ptr_[rax+0x@@
or_esi@@
15+4],
48]_1,
je_0x8e,
je_0x98,
jne_0x55,
+8]_rax,
_0x7f2bb70@@
mov_edi_8,
mov_r10_qword_ptr_[rsp+8],
movsxd_rdx_ebx,
34]_4,
4]_ax,
esa
shr_esi@@
-3],
7e],
_byte_ptr_[rax],
call_0x6c@@
call_0xffffffffffff66@@
jmp_0xfffffffffffffb@@
d2ev
lea_rdx_[rsp+0xc],
mov_rax_qword_ptr_[rip+0x218@@
send
cmp_qword_ptr_[rbx]_0,
shl_rax_cl,
18]_1,
8b],
_r13w,
cmp_byte_ptr_[rdx+@@
cmp_rax_rbp,
73],
88]_rax,
jmp_0xffffffffffffffbf,
and_byte_ptr_[r@@
jmp_0xffffffffffffffad,
mov_edi_0x44@@
shl_esi@@
_0xffffffff@@
cmp_ebp_eax,
1bb@@
cmp_byte_ptr_[rsi@@
cmp_r13_rax,
add_eax_dword_ptr_[r@@
add_rsp_0x10@@
call_0xffffffffffff4c@@
cb
and_eax_edx,
call_0x5c@@
mov_rax_qword_ptr_[rsi+8],
13-1],
bp]@@
d1],
group
jmp_8,
jne_0xffffffffffffffc8,
mov_rdx_qword_ptr_[rax+0x30],
sub_rsp_0x70,
cmp_ecx_eax,
mov_rcx_qword_ptr_[rbp-0x28],
call_0x8b@@
cmovns@@
cmp_qword_ptr_[rsp+0x1@@
i
test_r8b_r8b,
jne_0x58,
mov_qword_ptr_[rbp-0x50]_rsi,
mov_r9_r8,
mov_ecx_0xa,
mov_edx_dword_ptr_[rax+4],
mov_r8_qword_ptr_[rsp+0x18],
mov_rax_qword_ptr_[rip+0x24@@
js_0x5@@
lea_rax_[rip+0x3@@
_0xff@@
mov_ebx_dword_ptr_[rsp+0x@@
mov_r15d_edx,
mov_rsi_qword_ptr_[rsp+0x@@
+rdx+0x1@@
cmp_edx_-1,
lea_rax_[rsp+0x10],
call_0xfffffffffff96@@
cmp_r11d@@
jmp_0xffffffffffffffb6,
_qword_ptr_[rsp+0x40],
lea_r11_[r@@
mov_edx_r8d,
and_rdx@@
bp+rax],
lea_rsi_[rip+0x2a@@
sbb_dl_0,
call_0xfffffffffffffbb@@
sub_r13@@
call_0x18@@
call_0xfffffffffffcf@@
34]_0,
add_eax_ecx,
cmp_ebx_-1,
je_0x8a,
jne_0x59,
sub_rsp_0x10@@
mov_dword_ptr_[rbp-0x2c]_eax,
mov_dword_ptr_[rbp-0x6@@
pkg
and
call_0xffffffffffff50@@
movsxd_rax@@
insert
mov_rax_qword_ptr_[rsp+0x60],
lea_rdi_[rip+0x22@@
_0x5d,
_bx,
lea_rbx_[rax@@
_0x26,
add_rsp_0xb8,
jmp_0x2c,
lea_rbp@@
end
jmp_0xffffffffffffffac,
a0]@@
mov_dword_ptr_[rbp-0xe@@
mov_rdi_qword_ptr_[rdi+0x18],
call_0x5a@@
cmp_byte_ptr_[rbx]@@
jmp_0xffffffffffffffc9,
mov_qword_ptr_[rax]_rbx,
lea_ebp_[r@@
lea_r9d_[r@@
mov_rbx_r12,
c]_2,
mov_rdi_qword_ptr_[rsp+0x@@
mem
mov_dword_ptr_[rbp-0x7@@
mov_rdi_qword_ptr_[r15+0x@@
movsxd_rbx_ebx,
1fc@@
cmp_eax_ebx,
jmp_0x2a,
jmp_0xffffffffffffffcb,
mov_word_ptr_[rax+0x@@
238],
ed],
test_byte_ptr_[r12+0x@@
call_0x57@@
mov_rcx_qword_ptr_[rdx],
76],
bp*8],
jmp_0xffffffffffffffae,
cmp_qword_ptr_[rdi]@@
di-1],
lea_rdx_[rbp-0x10],
mov_qword_ptr_[rsi]_0,
18d@@
call_0xfffffffffff97@@
jmp_0xffffffffffffffcd,
8f],
jne_0x53,
mov_edx_dword_ptr_[rbp-0xc],
mov_esi_dword_ptr_[rax],
call_0x67@@
call_0xffffffffffff4d@@
lea_rsi_[rip+0x22@@
6b],
call_0xfffffffffff8d@@
call_0xffffffffffff4b@@
call_0xffffffffffff5e@@
mov_r8d_dword_ptr_[rsp+8],
15]_0,
cmp_qword_ptr_[rax]_0,
jmp_rdx,
jne_0x52,
mov_eax_dword_ptr_[rbx+0x1@@
52@@
lookup
process
10]_1,
je_0x8c,
lea_rcx_[rsp+0x18],
setb@@
cmp_rax_qword_ptr_[rbp-0x18],
map
jmp_0xffffffffffffffab,
mov_edi_0x41d@@
test_al_0x10,
f3],
mov_qword_ptr_[rbp-0xb@@
mov_byte_ptr_[rdi]_0,
setl@@
add_rbp_rax,
ffff@@
jne_0xffffffffffffffc3,
mov_dword_ptr_[rsp+0x2c]_eax,
mov_qword_ptr_[r12]_0,
mov_rdi_qword_ptr_[r14+0x@@
call_0xffffffffffff7d@@
77],
block
cmp_r12_rbx,
jmp_0xffffffffffffffa3,
jne_0x4c,
jne_0x5a,
dx+1],
aa],
mov_rax_qword_ptr_[0x@@
54]_eax,
call_0xfffffffffffff3@@
cmove_rax_rdx,
cmp_eax_0x20,
lea_rdi_[rip+0x17@@
call_0x8c@@
call_0xffffffffffff57@@
div_ecx,
jmp_0xffffffffffffffc8,
jne_0xffffffffffffffd3,
mov_qword_ptr_[rbx+0x28]_rax,
sete_dil,
+rcx*2],
7f],
call_0xffffffffffff47@@
or_rdx_rax,
10]_rax,
add_rdx_rdx,
bp+2],
je_0x9e,
_qword_ptr_[rsp+0x20],
dx+3],
dump
f7],
100],
108],
jmp_0xffffffffffffff8d,
call_0xfffffffffffba@@
call_0xffffffffffffe4@@
mov_qword_ptr_[rbx+0x4@@
mov_rcx_qword_ptr_[rbp-0x30],
-8]_0,
_0xffff8706,
add_r12d@@
mov_r8d_4,
mov_r9d_ebx,
8]_0x40@@
je_0x8b,
je_0x9b,
7b],
_qword_ptr_[rsp+0x58],
call_0x54@@
cx+2],
je_0xa0,
lea_rsi_[rip+0x2c@@
push_1,
je_0xaa,
jne_0xffffffffffffffce,
mov_qword_ptr_[rbp-0x48]_rdx,
sub_r9d@@
lea_r15@@
mov_dword_ptr_[rsp+0x18]_0,
mov_qword_ptr_[rbp-0xc0]_rax,
mov_rax_qword_ptr_[rip+0x217@@
lea_rdi_[rip+0x18@@
mov_r10d_dword_ptr_[rsp+0x@@
_r11@@
jmp_0xffffffffffffffa4,
jmp_0xffffffffffffffc5,
mov_rax_qword_ptr_[rip+0x214@@
1f7@@
jne_0x30@@
je_0xa5,
mov_byte_ptr_[rbx]_0,
and_eax_ecx,
cmp_byte_ptr_[rdi]@@
jbe_0xfffffffffffffe@@
je_0xb5,
jne_0x4f,
mov_edx_dword_ptr_[rbp-4],
shl_rcx@@
14+@@
call_0x5d@@
lea_rax_[rsp+0x28],
mov_dword_ptr_[rcx+0x@@
mov_dword_ptr_[rdx+0x10]_1,
call_qword_ptr_[rax+0x1@@
cmp_byte_ptr_[rdi+@@
cmp_byte_ptr_[rsi]_0,
fb],
mov_dword_ptr_[rax]_1,
format
jmp_0xffffffffffffff98,
mov_eax_dword_ptr_[rbx+0x10],
]_bpl,
div_rcx,
mov_r8d_0x40@@
cmp@@
mov_dword_ptr_[rsp+8]_r8d,
mov_eax_r9d,
shr_rcx@@
je_0xac,
19d@@
jmp_0xffffffffffffffb5,
mov_edx_dword_ptr_[rdi+0x@@
sub_eax_dword_ptr_[r@@
sub_rax_qword_ptr_[r@@
cmove_rax@@
ee],
call_0x26@@
cmove_eax_ecx,
_rdi_rax,
jmp_0xffffffffffffffa7,
mov_qword_ptr_[rsp+0x20]_rdx,
mov_rdi_qword_ptr_[rdx],
2c]@@
jne_0x62,
cmp_r12d_eax,
je_0xa1,
shr_eax_0x1f,
je_0x91,
mov_edx_dword_ptr_[rbp-0x1c],
shr_rdx_1,
sub_eax_dword_ptr_[rbp-0x@@
_0x42,
call_0x4b@@
cmp_eax_ecx,
cmp_ecx_edx,
input
mov_dword_ptr_[rbp]@@
call_0xfffffffffffffb0@@
e6],
je_0xa2,
lea_rax_[rsp+0x18],
mov_rax_qword_ptr_[rip+0x213@@
e7],
mov_dword_ptr_[rsp+0x24]_eax,
je_0xab,
je_0x8f,
mov_rdi_qword_ptr_[rbp+0x18],
mov_word_ptr_[rax@@
lea_rsi_[rsp+4],
lea_rax_[rip+0x7@@
mov_eax_dword_ptr_[r13],
mov_rdx_qword_ptr_[rsp+0x48],
mov_rsi_qword_ptr_[r15],
movsx_edx@@
mov_qword_ptr_[r12+8]_rax,
mov_qword_ptr_[rbx+0x20]_0,
mov_qword_ptr_[rdi]_0,
movzx_r12d@@
180,
9+0x1@@
cmp_rbx_rdx,
je_0x9a,
lea_rdx_[rip+0x20@@
mov_rax_qword_ptr_[rbx+0x968],
lea_rax_[rsp+0x60],
lea_rsi_[rdx@@
mov_r9_qword_ptr_[rsp+0x10],
mov_rax_qword_ptr_[rip+0x212@@
bp*4],
lea_rcx_[rsp+0x20],
or_qword_ptr_[rsp]_0,
add_r15d_1,
cmp_qword_ptr_[rsp+@@
jmp_0xffffffffffffffbc,
jne_0xffffffffffffffc7,
load
120@@
call_qword_ptr_[r9],
di*4],
movaps_xmmword_ptr_[rsp+0x80@@
test_@@
_xmm3,
di+2],
je_0x90,
jmp_0xffffffffffffff9d,
lea_rdi_[rip+0x11@@
opt
sub_r15@@
sub_rsi_rax,
call_0x6a@@
cmp_byte_ptr_[rip+0x20@@
jmp_0xffffffffffffffbb,
lea_r8_[rip+0x2@@
mov_byte_ptr_[rsi+0x1@@
-0x18],
_qword_ptr_[rsp+0x50],
mov_eax_dword_ptr_[rbp-0x54],
or_dword_ptr_[rbp-0x@@
8]_0x6@@
jmp_0xffffffffffffffb4,
lea_rsi_[rip+0x2d@@
mov_edi_0x4d@@
mov_rax_qword_ptr_[rip+0x26@@
bx]_0,
jmp_0xffffffffffffff94,
movsd_xmm1@@
movsxd_rax_dword_ptr_[rip+0x2@@
movzx_r15d@@
83@@
call_0xfffffffffffd5@@
je_0x9c,
jmp_0xffffffffffffffc1,
mov_qword_ptr_[rdx]_0,
13]@@
mov_r9_rcx,
_qword_ptr_[rsp+0x18],
je_0xae,
jmp_0xffffffffffffffb9,
jne_0xffffffffffffffcc,
mov_eax_dword_ptr_[rax+0x28],
mov_ecx_0x40,
b]_0,
eb],
jmp_0xffffffffffffff9c,
lea_rcx_[rip+0x6@@
sub_rdx_1,
cmp_eax_esi,
mov_rdi_qword_ptr_[rsp+0x58],
test_r12b@@
+rax+2],
jmp_0xffffffffffffffb7,
lea_r13d_[r@@
mov_qword_ptr_[rax+0x20]@@
sp+0x108],
4]_2,
_si,
cmp_eax_0x10@@
cmp_eax_0xb,
jmp_0xffffffffffffffc3,
_r8d@@
jne_0x5f,
lea_rcx_[rip+0x3@@
9]_1,
jmp_0xffffffffffffffa6,
mov_eax_8,
mov_rax_qword_ptr_[rsp+0x98],
ax*8+0x@@
jmp_0xffffffffffffffb1,
mov_edi_esi,
mov_qword_ptr_[rsp+0x90]_0,
call_0xfffffffffffbd@@
cmpxchg@@
sub_rsp_0xc8,
d8]_0,
mov_dword_ptr_[rax+8]_edx,
cmp_esi_dword_ptr_[r@@
e]@@
jmp_0xffffffffffffffb3,
clear
imul_rdx,
lea_r8d@@
_0x6e,
callback
mov_qword_ptr_[rbp-0x18]_0,
mov_rcx_qword_ptr_[rax+0x10],
_r14w,
call_0xfffffffffffc7@@
call_0xffffffffffff7c@@
shl_rbp@@
call_0xffffffffffff3c@@
cmove_rdx_rcx,
mov_qword_ptr_[rax+0x20]_0,
mov_rax_qword_ptr_[r12+0x10],
movzx_eax_byte_ptr_[rdx+1],
00000000,
_0x63,
lea_rsi_[rip+0x1e@@
mov_dword_ptr_[rbp-0x34]_eax,
mov_eax_dword_ptr_[rsp+0x24],
movaps_xmmword_ptr_[rsp+0x10]_xmm0,
_edx_eax,
je_0xa9,
je_0xb0,
mov_byte_ptr_[rdx]_al,
test_ah@@
mov_byte_ptr_[rbx+@@
call_0xffffffffffff5b@@
debug
lock_cmpxchg@@
call_0xffffffffffff38@@
ul
15+0x28],
8+1],
je_0xa3,
mov_qword_ptr_[rax]_rcx,
si+0x30],
c2],
call_0xffffffffffff3a@@
jmp_0xffffffffffffffbd,
mov_dword_ptr_[r15+0x1@@
jmp_0xffffffffffffffc2,
mov_rax_qword_ptr_[rip+0x3@@
cmp_ebx_dword_ptr_[r@@
lea_rcx_[rip+0x4@@
mov_rdi_qword_ptr_[rsp+0x60],
e_8,
mov_qword_ptr_[rbp-0x10]_0,
mov_rsi_qword_ptr_[rdx],
call_0xffffffffffff9f@@
call_0xffffffffffffd5@@
mov_r9d_4,
+0x18],
800,
_0x37,
commonio
lea_edx_[rax-0x@@
a2],
ja_0xa@@
mov_byte_ptr_[r12@@
probe
jne_0xffffffffffffffca,
b2],
call_0x6d@@
call_0xffffffffffffc7@@
call_0xffffffffffffd8@@
lea_r13@@
mov_qword_ptr_[rbp+0x10]_rax,
cmovne_eax@@
mov_edx_dword_ptr_[rbp-0x14],
shr_rax_0x3f,
xor_rax@@
20]_xmm0,
or_dword_ptr_[rbx+0x@@
call_0xffffffffffff3d@@
call_0xfffffffffffff9@@
cmp_byte_ptr_[rbp+0x@@
cmp_eax_0x4000,
cmp_edi_2,
e3],
expr
lea_rsi_[rip+0x27@@
12+0x30],
6]_ax,
call_0xffffffffffff6e@@
lea_rcx_[rip+0x5@@
mov_rax_qword_ptr_[rdi+0xe0],
movsd@@
sync
_0xffffffffffff@@
and_eax_7,
jmp_0xffffffffffffff8b,
jne_0x65,
lea_rcx_[rdx@@
lea_rdi_[rip+0x9@@
6c]_0,
cmovae@@
lea_rax_[rip+0x24@@
mov_edi_0x30,
jmp_0xffffffffffffffa5,
mov_edx_0x100,
]_r13,
bx-8],
handler
jmp_0xffffffffffffff92,
mov_qword_ptr_[rsp+0x70]_rax,
shl_rdx_2,
_0x1d,
a5],
lea_r8_[rip+0x10@@
mov_edi_ecx,
14+4],
_[rax+8],
ef],
jmp_0x30,
jmp_0xffffffffffffffa9,
mov_rdx_qword_ptr_[rsp+0x58],
mov_word_ptr_[rdi-@@
test_byte_ptr_[r15+0x@@
jmp_0xffffffffffffff93,
lea_rsi_[rip+0x28@@
call_0xfffffffffff8b@@
b6],
call_0x24@@
jne_0x60,
1ec@@
_xmm6@@
je_0xa4,
mov_dword_ptr_[rbx]_0,
mov_ecx_0x2@@
mov_rdi_qword_ptr_[rbp+0x20],
call_0x87@@
call_0xffffffffffff36@@
cmp_dword_ptr_[r15+0x@@
jmp_0xffffffffffffc@@
lea_rdx_[rip+0xe@@
movsxd_rax_edx,
_xmm0_xmm0,
call_0x86@@
movzx_eax_word_ptr_[rsp+0x@@
120],
]_di,
call_rbx,
jmp_0xffffffffffffff72,
lea_rdx_[rip+0x12@@
mov_qword_ptr_[rsp+0x18]_r8,
call_0xffffffffffff7b@@
jmp_0xffffffffffffff91,
jmp_0xffffffffffffffc7,
jmp_0xffffffffffffffd8,
ax+rdx*8],
jmp_0xffffffffffffff1@@
jne_0xffffffffffffffcd,
call_0xfffffffffffffaa@@
n
b5],
jne_0x57,
mov_eax_dword_ptr_[rbp-0x30],
mov_r13_qword_ptr_[rax],
lea_rsi_[rip+0x30@@
mov_dword_ptr_[rbp-0x1c@@
mov_rbx_qword_ptr_[rbx+0x10],
cmove_eax@@
mov_r8d_r13d,
38]_eax,
_0xffff86f4,
call_0xfffffffffffbe@@
mov_edi_dword_ptr_[rsp+0xc],
mov_r9_rsi,
mov_rax_qword_ptr_[rdi+0x30],
jne_0xffffffffffffffc9,
lea_rdi_[rip+0x1a@@
xor_eax@@
_qword_ptr_[rsp+0x48],
add_qword_ptr_[rbp-@@
cmp_@@
mov_r11d_dword_ptr_[rsp+0x@@
cx+0x20],
display
wrap
add_r11@@
jmp_0xffffffffffffffce,
mov_qword_ptr_[rsp+0x9@@
mov_rax_qword_ptr_[rdx+8],
movzx_ecx_byte_ptr_[rdx],
add_rax_rbp,
cmp_eax_0xffff874f,
jmp_0xffffffffffffff8c,
mov_edx_0xc,
si*8],
20]_edx,
mov_rsi_qword_ptr_[rbx+0x20],
add_rdi_rax,
cmp_dword_ptr_[r12+0x@@
mov_dword_ptr_[r13]_eax,
mov_eax_7,
mov_qword_ptr_[rdx+@@
mov_qword_ptr_[rsp+0x20]_rcx,
mov_rax_qword_ptr_[rbx+0xd0],
mov_qword_ptr_[rbx+0x18]_0,
not_edx,
je_0xa6,
lea_rdi_[rip+0xe@@
mov_r9_qword_ptr_[rsp+0x18],
sar_rsi_3,
shr_edx_0x10,
420],
_0x20000,
and_edx_0xffffff@@
mov_dword_ptr_[rsp@@
com
je_0xad,
sp+0x100],
sub_rsp_rax,
dx+0x30],
jmp_0xffffffffffffffd7,
lea_rax_[rsp+8],
lea_rsi_[rip+0x34@@
mov_dword_ptr_[rip+0x3@@
mov_r8d_0x4c0@@
movsx_rdx@@
call_0x5b@@
call_0x8d@@
cmp_qword_ptr_[rbp+0x68]_0,
je_0xb6,
jmp_0xffffffffffffffcf,
message
mov_edx_0x200,
mov_r11d_eax,
sub_rsp_0xe8,
0]_0x20,
60]_1,
call_0x3f@@
jmp_0xffffffffffffff78,
jmp_0xffffffffffffffbe,
jne_0x67,
lea_r12d@@
lea_rcx_[rip+0xd@@
movzx_edx_byte_ptr_[rbx],
sar_rax@@
mov_qword_ptr_[rax+0x5@@
sub_r14d@@
test_r14b_r14b,
and_eax_0xf,
call_0xffffffffffffd6@@
1dd@@
c]_0xffffffff,
jmp_0xffffffffffffffa1,
lea_rdx_[rbp-0x18],
mov_rdx_qword_ptr_[r12+0x@@
14]_eax,
8]_al,
call_0x4a@@
or_ah@@
sp-0x@@
+rax*8+8],
call
array
lea_rcx_[rdx+2],
mov_eax_dword_ptr_[rsp+0x20],
lea_rsi_[rsp+0x40],
console
d]_0,
jmp_0xffffffffffffffaf,
mov_esi_0x2000,
8+0x10],
9]_rax,
be],
jne_0x61,
lea_rdx_[rip+0x16@@
mov_eax_dword_ptr_[rax+0x1c],
jmp_0xffffffffffffff7d,
jmp_0xffffffffffffffc4,
mov_eax_0xffffffea,
range
15]@@
24]_eax,
call_0x5e@@
jmp_0xffffffffffffff80,
lea_rax_[rbx+0x@@
mov_eax_dword_ptr_[r14],
mov_rdi_qword_ptr_[rip+0x3@@
ba],
call_0xfffffffffff8c@@
call_0xffffffffffff7e@@
jmp_0x2e,
jmp_0xffffffffffffff89,
push_qword_ptr_[rbp-0x30],
20]_rdx,
call_0xffffffffffff34@@
call_0xffffffffffff40@@
jne_0x66,
mov_rax_qword_ptr_[rip+0x219@@
sub_rcx_rdi,
1ea@@
2]_rax,
and_esi_1,
mov_esi_0x44@@
mov_qword_ptr_[rsp+0x28]_rcx,
mov_rdi_qword_ptr_[rbx+0x40],
ce],
je_0xa8,
jmp_0xffffffffffffff97,
mov_r9_qword_ptr_[rip+0x2@@
mov_rdi_qword_ptr_[r13+0x@@
si+2],
_dword_ptr_fs:[r@@
dup
jmp_0xffffffffffffff99,
jne_0x5c,
440],
add_dword_ptr_[rbp-@@
count
jg_0x4@@
mov_qword_ptr_[rax+0x30]_rdx,
jmp_0xffffffffffffff9b,
lea_rsi_[rip+0x26@@
mov_edi_0xffffffff,
pcmpeqb@@
lea_rax_[rsp+0x80],
mov_qword_ptr_[rbp-0xa8]_rax,
movaps_xmmword_ptr_[rsp+0x60]_xmm0,
8]_r13d,
call_0x80@@
cmp_rbx_r13,
jmp_0xffffffffffffffd6,
jne_0xffffffffffffffc5,
mov_esi_7,
test_dil_2,
call_0xffffffffffff37@@
jne_0x68,
lea_r14d_[r@@
di]@@
movaps_xmmword_ptr_[rsp+0x20]_xmm0,
ad],
jne_0xffffffffffffffbd,
lea_rax_[rbp-0x50],
lea_rsi_[rbp+0x@@
mov_byte_ptr_[rdi+0x@@
mov_dword_ptr_[rsp+0xa@@
mov_dword_ptr_fs:[rax]@@
mov_r15d_ecx,
_0xfd,
_r11b,
call_0x19@@
jmp_0xffffffffffffffa2,
lea_rsi_[rip+0x2b@@
movzx_edx_byte_ptr_[rax+1],
call_0xffffffffffff54@@
cmp_dword_ptr_[rbp-0x34]_0,
je_0x9f,
jmp_0xfffffffffffffa@@
lea_r12@@
movaps_xmmword_ptr_[rsp+0x90@@
4]_r8d,
flags
history
ja_0x8@@
mov_rbx_qword_ptr_[rsp+0x38],
mov_rsi_qword_ptr_[rbp-0x10],
call_0x56@@
jmp_0xffffffffffffffd3,
jne_0x34@@
os
subsd@@
jmp_0x29,
mov_dword_ptr_[rbp-0xb@@
add_r9d@@
c5],
call_0xfffffffffff90@@
jmp_0x2d,
movsx_ecx@@
1fd@@
movsxd_rsi_dword_ptr_[r@@
8]_ax,
add_r12_rax,
call_0xffffffffffff58@@
cmp_eax_0x8000,
je_0xbd,
mov_eax_dword_ptr_[rax+0xf0],
mov_rax_qword_ptr_[rax+0xe0],
test_dl_2,
c6],
cmp_rsi_rdx,
compare
jmp_0xffffffffffffff95,
jmp_0xffffffffffffff9e,
jne_0x5d,
mov_eax_dword_ptr_[rsp+0x2c],
mov_qword_ptr_[rsp+0xb8]_rax,
mov_r15_r8,
b7],
ei
global
inc_rbp,
je_0x94,
jmp_0xffffffffffffffaa,
jne_0xffffffffffffffc6,
movzx_eax_byte_ptr_[rbp],
cmp_qword_ptr_[r13+0x@@
e0]_0,
jmp_0xffffffffffffffba,
sub_rdx_rsi,
14+0x28],
2c]_eax,
cmp_al_0x2e,
mov_dword_ptr_[rbp-0xc]_esi,
mov_rbx_qword_ptr_[rsp+0x10],
mov_rsi_qword_ptr_[r14],
15+0x30],
240],
call_0xfffffffffffd3@@
movzx_eax_byte_ptr_[rbx+@@
add_eax_2,
cmp_esi_eax,
lea_r8_[rip-0x@@
or_ebx@@
jmp_0xffffffffffffff96,
mov_rax_qword_ptr_[rsp+0x88],
options
sub_rsp_0xa0,
14-1],
1fb@@
add_rax_rdi,
cmp_byte_ptr_[r12]_0,
mov_r8d_esi,
ca],
jmp_0xffffffffffffff83,
mov_eax_dword_ptr_[rbp-0x38],
call_0xfffffffffffff93@@
cmp_eax_0x5@@
cmp_ebp_-1,
lea_r8_[rip+0x7@@
lea_rdi_[rip+0x27@@
mov_eax_0x10,
movzx_r12d_byte_ptr_[r@@
shl_r12@@
je_0x97,
jmp_0x2b,
parser
test_dil_1,
cx+0x18],
lea_rsp_[rbp-0x28],
mov_ecx_9,
test_byte_ptr_[rax+r@@
test_byte_ptr_[rbp+0x13@@
140@@
ax+rdx*4],
call_0xfffffffffff98@@
mov_edx_7,
13*8],
cmp_eax_ebp,
device
java
je_0xcd,
jmp_0xffffffffffffff9a,
mov_dword_ptr_[r12]@@
call_0x7a@@
je_0x89,
je_0xa7,
a3],
lea_rdi_[rip+0x19@@
xor_ecx@@
mov_esi_0x414@@
mov_qword_ptr_[rsp+0x28]_rdx,
mov_rax_qword_ptr_[rsp+0x78],
mov_rdx_qword_ptr_[rax+0x38],
280,
by
call_0xfffffffffff8a@@
jmp_0xffffffffffffffcc,
jne_0x64,
mov_dword_ptr_[rbp-4]_0,
si+0x1c],
jmp_0xffffffffffffff84,
mov_r13_qword_ptr_[rdi],
cmp_edx_3,
jmp_0xffffffffffffff9f,
cf],
jmp_0xffffffffffffff88,
jmp_0xffffffffffffffc6,
lea_rsi_[rip+0x2e@@
pop_r9,
ax]@@
cb],
cmp_r12b@@
lea_rdi_[rip+0x24@@
mov_dword_ptr_[rsp+8]_esi,
cd],
cmp_al_2,
je_0xba,
cmp_dword_ptr_[rax]_2,
di+0x14],
mov_dword_ptr_[rdx+@@
mov_eax_dword_ptr_[rax+0x14],
sbb_rdx_3,
da],
mov_dword_ptr_[r12+@@
mov_dword_ptr_[rsp+0x38]_eax,
mov_qword_ptr_[rsi+0x10]_rax,
sub_qword_ptr_[r@@
add_dword_ptr_[rbx+0x@@
call_0xfffffffffffbf@@
and_eax_0x40,
b3],
call_0x90@@
mov_esi_dword_ptr_[rbp+0x@@
+rax*4@@
call_0xfffffffffffff9c@@
jmp_0xffffffffffffff81,
mov_edx_dword_ptr_[rbp],
mov_rdx_qword_ptr_[r13],
78]_rax,
call_0xffffffffffff56@@
cmove_ebx_eax,
jmp_0xffffffffffffffca,
mov_r9_qword_ptr_[rsp],
mov_rbx_qword_ptr_[rdi+0x@@
118],
call_0x9c@@
call_0xfffffffffffff9d@@
cmp_byte_ptr_[rbp+@@
cmp_qword_ptr_[rdi]_0,
lea_eax_[rcx-0x1010101],
lea_rax_[rsp+0x70],
lea_rdx_[rip+0x15@@
mov_rdx_r10,
call_0x58@@
call_0xffffffffffea@@
call_0x32@@
je_0xaf,
pd@@
cmp_rdx_1,
mov_qword_ptr_[rip+0x3@@
a6],
bd],
cmp_byte_ptr_[rbx+0x1@@
cmp_qword_ptr_[rbp-0x40]_0,
mov_rax_qword_ptr_[rip+0x216@@
4]_ebp,
je_0xc0,
mov_eax_dword_ptr_[rbx+0x18],
mov_ecx_dword_ptr_[rax+0x428],
mov_rdx_qword_ptr_[rbp+8],
mov_rdx_qword_ptr_[rbp-0x50],
mov_rdx_qword_ptr_[rbp-0x58],
add_r12_8,
cmp_qword_ptr_[r14+0x@@
je_0xb7,
100,
cvtsi2sd_xmm0_rax,
movzx_r13d@@
12*8],
lea_rcx_[rip+0xc@@
mov_dword_ptr_[rsp]_0x10,
410],
call_0xffffffffffff3b@@
je_0xc5,
d5],
je_0xffffffffffffffe6,
lea_esi_[rax@@
mov_edi_0x40,
mov_qword_ptr_[rsp+0xc8]_rax,
mov_rbx_qword_ptr_[rbp-0x@@
call_0xffffffffffff3e@@
cmp_rdx_rbx,
je_0xc1,
jne_0x6d,
lea_rdx_[rip+0x19@@
mode
mov_r8_rsp,
mov_r8d_r14d,
js_0x7@@
mov_esi_0x18,
mov_qword_ptr_[rbp-0x40]_rcx,
movaps_xmmword_ptr_[rsp+0xa0@@
call_0xfffffffffffab@@
call_0xffffffffffff30@@
call_0x7b@@
lea_edi@@
cmp_eax_0x10,
mov_r13d_edi,
shl_rcx_4,
7]_al,
cmp_eax_0xffff86f6,
jmp_0xffffffffffffffd5,
lea_rcx_[rip+0xa@@
lea_rdi_[rip+0xf@@
sub_rsp_0x90,
call_0xfffffffffffc6@@
mov_ecx_edi,
on
bf],
mov_edx_dword_ptr_[rax+0x41c],
mov_rdx_qword_ptr_[rdx+8],
call_0xffffffffffff2a@@
lea_rdx_[rip+0x1a@@
mov_byte_ptr_[rcx+@@
movsxd_rax_r12d,
sub_rcx_rdx,
unlock
11+r@@
call_0xffffffffffff2d@@
mov_edx_dword_ptr_[rsp+0x14],
rb
test_byte_ptr_[rax+0x134]_0x40,
_xmm4@@
cmp_rax_qword_ptr_[rbp-0x20],
jmp_0xffffffffffffff60,
jmp_0xffffffffffffff86,
test_byte_ptr_[rcx@@
e_@@
jne_0x63,
jne_4,
mov_edx_dword_ptr_[rsp+0x18],
mov_rax_qword_ptr_[rbx+0x30],
movaps_xmmword_ptr_[rsp+0xb0@@
mov_qword_ptr_[rsp+0x108]_rax,
mov_qword_ptr_[rsp+8]_r10,
298],
9+8],
add_rbx_4,
call_0xfffffffffffff8e@@
cmovne_rax_rdx,
jmp_0xffffffffffffff8a,
movups_xmmword_ptr_[rax+0x@@
si*@@
cmp_byte_ptr_[rsp+0x1@@
lea_r8_[rip+0xa@@
mov_edx_0x14,
je_0xb9,
jmp_0xffffffffffffff85,
mnt
mov_qword_ptr_[rsp+0x88]_0,
mov_qword_ptr_[rsp+0xd@@
mov_rcx_r9,
mov_dword_ptr_[rsp+0x30]@@
mov_eax_dword_ptr_[rip+0x22@@
sub_eax_ecx,
_rdx_rcx,
jne_0x7c,
jne_0xffffffffffffffc1,
lea_rax_[rax+rax*4],
shl_rdi_3,
cmp_r14d_4,
jmp_0xffffffffffffff75,
mov_qword_ptr_[rbp-@@
lea_r9@@
mov_dword_ptr_[rsp+0x9@@
movzx_edx_dx,
or_eax_ecx,
test_r15b_r15b,
cmp_byte_ptr_[rax@@
sleepycat
1java
jne_0xffffffffffffffc2,
jni
mov_qword_ptr_[rbx]_rdx,
mov_r14d_r8d,
mov_rsi_qword_ptr_[rax+0x30],
movsx_edi@@
09],
append
mov_ecx_dword_ptr_[rax+0x28],
add_qword_ptr_[rbp-8]_1,
call_0xfffffffffff94@@
mov_qword_ptr_[rsp+0x20@@
3c]_1,
sub_r12d@@
+rcx+0x@@
jmp_0x42,
200,
jmp_0xffffffffffffff68,
lea_rdi_[rip+0x26@@
call_0xfffffffffffff8d@@
g
lea_rsi_[rsp+0xc],
0]_0xffffffff,
add_rbx_qword_ptr_[r@@
cmp_dword_ptr_[rdi+@@
ae],
je_0xbb,
jmp_0xfffffffffffffef@@
lea_rsi_[rax+1],
mov_qword_ptr_[rbp-0x60]_rax,
sub_ebp_1,
8]_edi,
add_rdx_rsi,
call_0xffffffffffff2c@@
call_0xffffffffffff48@@
cmp_dl_9,
drm
jg_0xfffffffffffffe@@
add_rsp_0xd0,
mov_ecx_dword_ptr_[rsp+4],
mov_edi_0x414@@
_r10w,
je_0xb2,
mov_eax_dword_ptr_[rax+0x420],
mov_qword_ptr_[rsp]_r9,
si+0xc],
mov_rbp_qword_ptr_[rbx],
movups_xmmword_ptr_[rbx+0x@@
test_byte_ptr_[rdx@@
call_0xfffffffffffac@@
jmp_0xffffffffffffff8e,
_ebx_eax,
jmp_0xffffffffffffff0@@
mov_edi_dword_ptr_[rbx+0x@@
_xmm2,
cmp_ebx_2,
jmp_0x33,
jmp_0xffffffffffffff7a,
mov_rdx_qword_ptr_[rdi+8],
1fa@@
de],
jne_0x6f,
not_rax,
_ebp_eax,
and_eax_0x10,
cmp_dword_ptr_[rbp-0x2c]_0,
f8]_0,
jmp_0xffffffffffffff87,
jmp_0xffffffffffffff8f,
s1
sub_rdx_rcx,
call_0x28@@
f0]_0,
je_0xbe,
mov_qword_ptr_[r15]_rax,
mov_r8_qword_ptr_[rbp-0x@@
mov_rbx_r14,
73@@
call_0x7d@@
call_0xffffffffffff20@@
sub_ecx_1,
mov_rsi@@
jne_0xffffffffffffffbe,
00000000@@
40]_xmm4,
cmp_ebp_2,
cmp_rdi_rdx,
jne_0x6b,
jne_0xffffffffffffffc4,
lea_r12_[rsp+0x20],
mov_qword_ptr_[rsp+0x20]_rsi,
call_0x60@@
call_0xffffffffffffc5@@
jne_0x6a,
l
mov_byte_ptr_[rdx+0x@@
mov_dword_ptr_[rax]_0xc,
mov_edx_dword_ptr_[rsp],
mov_qword_ptr_[rsp+0x10]_r9,
rep_movsq_qword_ptr_[rdi]_qword_ptr_[rsi],
blkid
call_0xfffffffffffc4@@
je_0xb4,
je_0xc6,
si+0x14],
test_dil_4,
a7],
call_0xfffffffffff3@@
jne_0xffffffffffffffba,
lea_r13_[rsp+0x20],
mov_esi_0x28,
mov_r15_r14,
mov_r9d_0,
jmp_0xffffffffffffff73,
mov_esi_esi,
mov_rbp_qword_ptr_[rax],
movsx_ebx@@
jmp_0x31,
mov_eax_dword_ptr_[rax+0x30],
mov_esi_0x41a@@
mov_rbp_qword_ptr_[rbx+0x@@
cmp_al_0x5c,
lea_rax_[rip+0x4@@
mov_rsi_qword_ptr_[rax+0x10],
test_bh@@
mov_eax_0xc,
mov_qword_ptr_[rsi+8]_rax,
_0x80000,
_rax_rdx,
cmp_ebx_3,
je_0xb1,
jmp_0xffffffffffffff82,
lea_rdx_[rip+0x17@@
mov_edi_0x41b@@
mov_rbx_qword_ptr_[rbp],
_0x33,
lea_rdi_[rax+8],
mov_eax_0x60@@
test_byte_ptr_[r14+0x@@
]_0x40,
call_0xffffffffffff13@@
cmp_rax_r12,
match
mov_byte_ptr_[rdx+0x1@@
mov_qword_ptr_[r12+0x10]_rax,
movzx_r13d_byte_ptr_[r@@
15-1],
_[rdx+r@@
cmove_r12d_eax,
je_0xca,
lea_rax_[rbp-0xb0],
lea_rdx_[rip+0x18@@
mov_edi_0x43@@
call_0xfffffffffffff9e@@
jne_0x75,
mov_qword_ptr_[rbp-0x11@@
mov_qword_ptr_[rbx+0x30]_rax,
add_dword_ptr_[rsp+0x@@
call_0xffffffffffff24@@
jne_0xffffffffffffffb9,
mov_qword_ptr_[rdi+8]_0,
sbb_edx_edx,
1000,
call_0x25@@
cmp_qword_ptr_[rsp+0x10]_0,
inc_rdx,
mov_eax_dword_ptr_[rbx+0x20],
d2],
movq@@
sub_r9@@
cmp_qword_ptr_[rsp+0x18]_0,
je_0xb3,
mov_rbx_qword_ptr_[rbx+0x18],
_xmm0_xmm1,
and_rsi@@
mov_qword_ptr_[rsp+r@@
shl_rsi_3,
call_0xffffffffffff2b@@
lea_rbp_[rsp+0x20],
c7],
call_0xfffffffffffbc@@
lea_rdi_[rbx+8],
mov_rax_qword_ptr_[rcx],
movaps_xmmword_ptr_[rsp+0x30]_xmm0,
test_ah_1,
call_0xfffffffffffad@@
jmp_0x32,
lea_rcx_[rip+0xb@@
mov_r13d_r8d,
01],
add_dword_ptr_[rip+0x2@@
call_0xfffffffffffff9b@@
jmp_0xffffffffffffff7f,
jne_0x72,
lea_r14_[rsp+0x10],
movdqu_xmm2_xmmword_ptr_[r@@
or_edx_eax,
test_byte_ptr_[r13+0x@@
68]_1,
jmp_0x2f,
mov_ecx_0x1000,
mov_esi_dword_ptr_[rax+0x@@
mov_qword_ptr_[rsp+0x20]_rdi,
call_0xffffffffffff1c@@
cmp_edx_ecx,
cmp_rdx_-1,
jne_0x7a,
mov_dword_ptr_[r13+0x1@@
call_0x9a@@
d4@@
d6],
je_0xed,
jmp_0xffffffffffffffd4,
34]_0x40,
index
64]_eax,
mov_ecx_dword_ptr_[rip+0x20@@
mov_rax_qword_ptr_[r14+8],
+rax*4+0x@@
mov_eax_5,
mov_ebp_dword_ptr_[rax],
mov_rbp_r12,
mov_rdi_qword_ptr_[rsi],
seta_cl,
1fe@@
mov_rbx_r15,
movaps_xmmword_ptr_[rsp]_xmm0,
ab],
cmp_dword_ptr_[rax+@@
handle
jmp_0xffffffffffffffd1,
pw
call_0xfffffffffffff94@@
je_0xc9,
jmp_0xffffffffffffffd2,
shl_eax_cl,
lea_rdx_[rbp-0x30],
mov_rdi_r11,
movzx_eax_byte_ptr_[rbx+0x1@@
4]_r12d,
c3],
call_0xfffffffffff8e@@
call_0xffffffffffffc8@@
f000,
jmp_0xffffffffffffff77,
lea_rax_[rbx+0x10],
mov_qword_ptr_[rax+0x38]_rdx,
228],
_r13d_eax,
client
jmp_0xffffffffffffff6b,
mov_byte_ptr_[rbp+@@
mov_dword_ptr_[rsp]_8,
_0xffffffffffffff@@
test_esi@@
dhcp
jmp_0xffffffffffffff62,
jmp_0xffffffffffffff6e,
mov_edx_dword_ptr_[rsp+0x10],
mov_esi_0x43@@
lea_rbx_[rsp+0x20],
]_r14,
and_dh@@
jmp_0xffffffffffffffdc,
movsxd_rsi_eax,
cmp_dword_ptr_[rdi]@@
db],
af],
dx+0x14],
mov_edx_dword_ptr_[r15+0x@@
movzx_r9d_word_ptr_[r@@
status
58]_1,
filter
lea_eax_[rdx-1],
mov_qword_ptr_[rsp+0xa0]_0,
0c],
je_0x87,
movsx_eax_word_ptr_[r@@
200@@
4c]@@
call_0x8e@@
je_0x86,
jmp_0xffffffffffffff53,
lea_r15d_[r@@
mov_eax_dword_ptr_[rdi+4],
mov_ecx_dword_ptr_[rbx+0x28],
mov_r9d_r12d,
mov_rax_qword_ptr_[r15+8],
movzx_eax_byte_ptr_[rbx+1],
setup
5]_al,
cmp_qword_ptr_[rsi@@
lea_rdi_[rip+0x1b@@
mov_edx_9,
je_0xd5,
lea_edi_[rax+1],
lea_rdi_[rsp+0x18],
mov_eax_dword_ptr_[rbp-0x28],
call_0x9b@@
jne_0x78,
lea_rsi_[rip+0x3c@@
mov_rdx_qword_ptr_[rbp+0x10],
mov_rdx_qword_ptr_[rsp+0x50],
82@@
epkc
jne_0x69,
mov_qword_ptr_[rbp-0x70]_rax,
mov_r14_qword_ptr_[rax],
arg
call_0xffffffffffff18@@
checked
cmp_dword_ptr_[r13+0x@@
glx
je_0xbf,
jmp_0xffffffffffffff7e,
jne_0x79,
mov_rax_qword_ptr_[rbx+0x50],
movabs_rsi@@
or_edi@@
5c]_eax,
cmp_rax_0xe,
je_0xce,
jmp_0xffffffffffffff7b,
mov_edx_dword_ptr_[rsi],
mov_r13_rbx,
ax+1],
jne_0xffffffffffffffbf,
mov_eax_dword_ptr_[rdi+0x10],
mov_esi_r8d,
add_rsp_0xc8,
call_0xffffffffffff7f@@
jmp_0xffffffffffffff76,
lea_rdi_[rip+0x28@@
lea_rsi_[rip+0x37@@
movzx_eax_byte_ptr_[r12],
si+rax],
_0x34,
add_rcx_qword_ptr_[r@@
call_0xfffffffffffff8c@@
call_0xfffffffffffff9f@@
jne_0x77,
mov_eax_0x10@@
mov_r15_rbx,
call_0xffffffffffff28@@
cx-0x@@
mov_qword_ptr_[rbp-0x30]_rcx,
1ff@@
call_0x4c@@
call_0xffffffffffff2e@@
cmove_r15d_eax,
lea_rdi_[rip+0x1c@@
mov_rcx_qword_ptr_[rdx+0x@@
movaps_xmmword_ptr_[rsp+0xc0@@
_0xfffffff9,
mov_dword_ptr_[rax]_2,
mov_dword_ptr_[rsp+0x30]_eax,
mov_dword_ptr_[rsp+0x38]@@
mov_eax_dword_ptr_[rbp-0x64],
mov_qword_ptr_[r14]@@
jmp_0xffffffffffffff6d,
mov_rax_qword_ptr_[rip+0x21a@@
movzx_edx_ax,
pxor@@
_0x39,
call_0xfffffffffffff95@@
lea_rax_[rcx@@
lea_rbx_[rdx@@
mov_rsi_qword_ptr_[rsp+0x50],
movzx_edx_byte_ptr_[rbp-0x@@
mov_r14_rsp,
64]_0,
bp*@@
call_0xffffffffffff84@@
mov_rsi_qword_ptr_[rax+0x18],
shl_rbx@@
sub_rax_rcx,
28]_rdx,
_0x20000@@
_0x69,
call_0xffffffffffff1a@@
call_0xffffffffffff8f@@
cmp_dword_ptr_[rsi+4]_1,
dec_dword_ptr_[r@@
lea_r10_[rip+0x@@
test_al_0x20,
jae_@@
mov_rcx_qword_ptr_[rsp+0x98],
mov_rdi_qword_ptr_[rax+0x28],
call_0xffffffffffffb7@@
call_0xfffffffffffff98@@
query
test_r13b@@
add_rdx_0x10,
dl
imul_eax_eax@@
jne_0x7f,
shr_al@@
call_0xffffffffffff14@@
df],
fd
jmp_0xffffffffffffff69,
mov_dword_ptr_[rcx]_eax,
mov_rdx_qword_ptr_[rbp-0x78],
70]_rax,
call_0xbb@@
jmp_0xffffffffffffff6a,
jmp_qword_ptr_[r@@
kit
mov_edi_0x4c@@
mov_rax_qword_ptr_[rbx+0x40],
signal
+rax*8-0x@@
cmp_dl_1,
jmp_0xffffffffffffff67,
jne_0x6e,
movzx_eax_byte_ptr_[rdx+2],
jmp_0xffffffffffffff61,
mov_eax_dword_ptr_[rax*4+0x@@
movsxd_rbx_eax,
sub_rbx_rax,
and_eax_0xfffffffd,
call_0xfffffffffffffa0@@
jmp_0xffffffffffffff79,
mov_edx_dword_ptr_[r12+0x@@
mov_rsi_qword_ptr_[rbp+0x18],
call_0xfffffffffff87@@
je_0xc3,
lea_rax_[rbp-0x10],
lea_rax_[rip+0xa@@
lea_rdi_[rip+0x2c@@
mov_rax_qword_ptr_[rbp-0x20@@
shl_edi@@
2a0],
_dx,
cmp_rax_qword_ptr_[rbp-0x10],
je_0xd2,
jmp_0xfffffffffffd@@
jmp_0xffffffffffffff65,
mov_dword_ptr_[rsp+0x20]_0,
reply
je_0xfffffffffffffff6,
jmp_0xffffffffffffff70,
jne_0x7d,
lea_rax_[rbp-0x60],
mov_eax_dword_ptr_[rsp+0x38],
cmp_qword_ptr_[rdx+0x@@
mov_edx_dword_ptr_[rdi],
mov_qword_ptr_[rbp-0x12@@
_0x100000,
cmp_byte_ptr_[rdx@@
event
je_0xd0,
lea_rsi_[rip+0x3d@@
sar_rcx@@
call_0xfffffffffffaa@@
jmp_0xffffffffffffff7c,
70]_xmm1,
_dx@@
_rbp_rax,
ax+2],
call_0xfffffffffffae@@
lea_rsi_[rip+0x47@@
mov_dword_ptr_[rbx]_edx,
_0xffffff80,
call_0x4d@@
je_0xd3,
jne_0x74,
jne_0x76,
jne_0x7b,
lock_dec@@
mov_edx_dword_ptr_[r14+0x@@
call_0x7c@@
cmp_al_0x5@@
cmp_byte_ptr_[rbx@@
d7],
je_0xb8,
jmp_0x3f,
mov_qword_ptr_[rsp+0x80]_rax,
mov_r15d_esi,
movss_xmm0@@
0]_r15,
_0x65,
_0xc@@
jne_0xffffffffffffffbc,
jne_0xffffffffffffffc0,
m
mov_esi_0x416@@
mov_qword_ptr_[rsp+0x38]_8,
test_byte_ptr_[rdx+0x@@
yy
+rdx+@@
130],
je_0x88,
mov_dword_ptr_[rdi@@
mov_rsi_qword_ptr_[r12+0x@@
_dil@@
call_0x88@@
call_0xfffffffffffc8@@
call_0xfffffffffffff8b@@
lea_rsi_[rip+0x36@@
mov_rax_qword_ptr_[rax+0x660],
mov_rax_qword_ptr_[rdi+0x28],
push_r9,
sub_rax_4,
test_byte_ptr_[rax+rdx*@@
call_0xfffffffffffff90@@
mov_ecx_dword_ptr_[rsp+0x14],
mov_rax_qword_ptr_[r13+8],
mov_rax_qword_ptr_[rip+0x21d@@
mov_rbx_qword_ptr_[rbp+0x@@
call_0xffffffffff@@
call_0xfffffffffffff97@@
jmp_0xffffffffffffffdb,
mov_r12_rbp,
mov_rcx_qword_ptr_[rbx+8],
430],
call_r12,
cmp_byte_ptr_[rdi+0x@@
iterator
cmovge@@
je_0xb@@
mov_qword_ptr_[rsp+0xa@@
_0x7f2bb@@
_r8_rax,
jmp_0xffffffffffffff34,
jmp_0xffffffffffffff4c,
mov_eax_r10d,
jne_0xffffffffffffffb7,
mov_esi_0xa@@
mov_qword_ptr_[rsp+0x40]_rdx,
0001,
cmp_dword_ptr_[rbx+@@
jmp_0x38,
lea_rdi_[rax+r@@
mov_rbp_qword_ptr_[rdi+0x@@
shr_edi@@
add_rdi_8,
mov_byte_ptr_[rdx+rax]_0,
default
call_0xffffffffffff12@@
call_0xffffffffffffd4@@
call_rbp,
jmp_0xffffffffffffff56,
jne_0x6c,
lea_rbx_[rax+1],
mov_r9d_ebp,
movzx_r10d_byte_ptr_[r@@
31b@@
cmp_rbx_qword_ptr_[r@@
e_al,
jne_0x38@@
test_r9b_r9b,
_rsi_rax,
mov_qword_ptr_[rsp+0xf@@
120,
call_0x35@@
jmp_0xffffffffffffff5d,
3a8],
call_0xfffffffffffd2@@
jmp_0x37,
mov_dword_ptr_[rbp-0x20]_eax,
mov_dword_ptr_[rsp+0x2c]@@
mov_qword_ptr_[rsp+0x18]_r9,
movsd_xmm2@@
movups_xmmword_ptr_[rbp+0x@@
2]_dx,
34]_eax,
_0x35,
_0x80000000,
and_eax_0x2000,
call_0xffffffffffff15@@
cmp_cx@@
cmp_qword_ptr_[rsp]_0,
mov_al@@
mov_qword_ptr_[rsp+0xb0]_0,
mov_r9d_0x@@
mov_rcx_qword_ptr_[rsp+0x30],
movsd_xmm1_qword_ptr_[r@@
add_r13d@@
call_0xfffffffffffff8f@@
imul_rcx@@
lea_rcx_[rip+0x7@@
movzx_eax_byte_ptr_[rdi+0x@@
_r15w,
call_0xa0@@
call_0xffffffffffff1d@@
cmp_qword_ptr_[rbp-@@
jne_0xffffffffffffffb1,
0]_esi,
240,
call_0xffffffffffffc6@@
mov_dword_ptr_[rsp+4]_edx,
mov_esi_0x200,
mov_word_ptr_[rbx+0x1@@
*8+8],
jmp_0x35,
mov_byte_ptr_[rdi+@@
mov_r9d_0x4@@
or_eax_0xffffffff,
call_0x6e@@
je_0xcc,
jmp_0xffffffffffffff57,
lea_ecx_[rdx+1],
mov_rax_qword_ptr_[rip+0x21c@@
mov_rdi_qword_ptr_[rbp+0x30],
mov_rdi_qword_ptr_[rdi+0x20],
movsd_xmm3@@
traits
20]_xmm6,
6]_al,
call_0xfffffffffffb7@@
call_0xfffffffffffff92@@
lea_eax_[rbx+1],
mov_edx_dword_ptr_[rax+0x10],
mov_qword_ptr_[rbp-0x20]_0,
mov_qword_ptr_[rip+0x22@@
mov_rax_qword_ptr_[rcx+0x@@
mov_rdx_qword_ptr_[r14+0x@@
movsx_eax@@
movzx_edx_byte_ptr_[rdi],
call_0xffffffffffff1b@@
jb_0x2@@
mov_rdi_qword_ptr_[rsi+0x20],
+rax+8],
04],
78]_1,
jmp_0xffffffffffffff71,
call_0xffffffffffff19@@
je_0xc2,
mov_dword_ptr_[r14+0x1@@
mov_eax_dword_ptr_[rbp+8],
time
jne_0xffffffffffffffbb,
mov_dword_ptr_[rbp-0x18]_eax,
mov_qword_ptr_[rax]_rbp,
shl_rdx_cl,
207@@
cmp_dword_ptr_[rbp-0x1c@@
jne_0xffffffffffffffb8,
stats
]_edi,
jne_0x95,
lea_rax_[rdx+4],
lea_rdi_[rip+0x2a@@
mov_esi_dword_ptr_[rsp+4],
sub_ecx_edx,
1a0],
call@@
call_0xfffffffffffff9a@@
jmp_0xffffffffffffff66,
jne_0xffffffffffffffb4,
mov_edx_dword_ptr_[r13],
3]_rax,
je_0xc4,
mov_byte_ptr_[rdi@@
mov_qword_ptr_[rsp]_rbx,
movaps_xmmword_ptr_[rsp+0xd0@@
cmp
jle_@@
mov_qword_ptr_[rbx+0x3@@
call_0xfffffffffffff99@@
cmp_qword_ptr_[rax]@@
mov_esi_0x417@@
movsxd_rdi_dword_ptr_[r@@
je_0xd1,
mov_eax_0x17,
sar_rax_0x3f,
emit
lea_rdi_[rax+0x@@
mov_esi_0x14,
_qword_ptr_[rsp+0x60],
je_0xc7,
jmp_0x34,
mov_rbx_r13,
]_0x80,
add_esi_1,
and_rcx@@
je_0xffffffffffffffe9,
jmp_0xffffffffffffffde,
mov_byte_ptr_[rdx]_0,
mov_edx_dword_ptr_[r12],
or_eax_2,
je_0xcf,
mov_dword_ptr_[rbp-8]_eax,
setbe@@
sete_sil,
shr_rax_1,
9+@@
cmovl@@
for
mov_qword_ptr_[rsp+0x38]_0xc,
mov_rax_qword_ptr_[rbx+0x38],
mov_rax_qword_ptr_[rip+0x215@@
cmp_r13_rbx,
je_0xc8,
jmp_0xffffffffffffff74,
lea_rsi_[rip+0x3a@@
mov_eax_dword_ptr_[r15],
mov_rcx_qword_ptr_[rsp+0x68],
280],
5a5@@
add_rsp_-0x80,
cleanup
d3],
jmp_0xffffffffffffff6c,
mov_rcx_qword_ptr_[rbp-0x38],
st11char
2e0,
call_r8,
jmp_0x36,
230],
50]_eax,
call_0x97@@
je_0xffffffffffffffe2,
jmp_0xffffffffffffa@@
jmp_0xffffffffffffff5c,
mov_qword_ptr_[rbp-0x28]_0,
mov_qword_ptr_[rbp-0x58]_rdx,
12+rax],
1e0@@
_xmm2_xmm0,
jmp_0xffffffffffffff50,
jmp_0xffffffffffffff63,
mov_rdx@@
and_r15d@@
cmp_eax_r12d,
jmp_0xffffffffffffff40,
mov_ebx_dword_ptr_[rax],
mov_rax_qword_ptr_[rbx+0x400],
]_0xffffffff,
call_0xffffffffffff1e@@
call_0xfffffffffffff8a@@
12+2],
add_rsp_0xe8,
mov_r9d_dword_ptr_[rsp+0xc],
mov_rbp_qword_ptr_[rbp],
and_ecx_7,
call_r13,
lea_ebp@@
mov_dword_ptr_[rbp-0x14@@
+rax-0x@@
10+0x1@@
1]_dl,
_0xfffffff4,
je_0xdc,
jmp_0xffffffffffffffd9,
mov_edx_dword_ptr_[rdx],
4]_rax,
mulsd_xmm0_qword_ptr_[rip+0x@@
3f7@@
_0x3fffffff,
_0xfffffffffffffffa,
add_qword_ptr_[rbp-0x18]_1,
cmp_qword_ptr_[rsp@@
je_0xbc,
je_0xdd,
mov_ecx_dword_ptr_[rdx+0x@@
mov_edx_dword_ptr_[rbx+8],
_r15d_eax,
call_0xffffffffffff27@@
jmp_0xffffffffffffff64,
lea_rdx_[rbp-0x40],
mov_dword_ptr_[rbp-0xa@@
test_byte_ptr_[rsi+0x@@
3c]@@
add_r14_8,
call_0x77@@
jmp_0xffffffffffffff6f,
lea_rdi_[rip+0x2e@@
lea_rsi_[rip+0x4c@@
mov_dword_ptr_[rbp-0x4b@@
mov_rcx_qword_ptr_[rdx+8],
movsx_rax@@
sort
sub_ebx_eax,
sub_rax_qword_ptr_[rbp-0x@@
change
jle_0xfffffffffffffe@@
lea_r14_[rsp+0x20],
movzx_eax_word_ptr_[rax+r@@
jne_0x70,
jne_0xffffffffffffffae,
mov_eax_dword_ptr_[rsi+8],
30]_xmm5,
_0xc0,
call_0xaa@@
cmp_dl_0x20,
mov_eax_0xfffffff9,
mov_qword_ptr_[rax+0x6@@
mov_qword_ptr_[rbp+0x1@@
test_dh@@
_xmm1_xmm2,
ax+3],
lea_rsi_[rip+0x38@@
mov_rax_qword_ptr_[rip+0x21b@@
mov_rax_qword_ptr_[rip+0x25@@
mov_rdx_qword_ptr_[rsi],
cmp_byte_ptr_[rax+0x@@
cmp_r13b@@
jmp_0xffffffffffffff51,
call_0xfffffffffffff7f@@
cmp_ebp_dword_ptr_[r@@
je_0xd4,
jmp_0xffffffffffffff59,
mov_r12d_ebx,
movzx_ecx_byte_ptr_[rax],
del
lea_rax_[rbp-0x18],
mov_r14_r15,
setne_cl,
jmp_0x3c,
mov_qword_ptr_[rbx+0x28]_0,
movsxd_rax_ebp,
shl_eax_2,
shl_rsi_4,
320,
and_eax_0xfffffffc,
cmp_esi_edx,
mov_byte_ptr_[rbx]@@
sub_rdx_rbx,
call_0xffffffffffff16@@
je_0xe2,
jne_0x8a,
lea_rdx_[rip+0x11@@
mov_dword_ptr_[r13+@@
mov_dword_ptr_[rbp-0x2c]_esi,
90]_rax,
bitmap
je_0xe6,
lea_rax_[rbx+r@@
movsxd_rbp_ebp,
with
10]_xmm7,
mov_word_ptr_[rbx+@@
cmp_r11@@
jne_0x73,
call_0xfffffffffffc9@@
jmp_0xffffffffffffff38,
movzx_eax_byte_ptr_[rcx],
shl_rdi_4,
mov_eax_0x@@
xor_edx@@
12+0x14],
add_r13_8,
call_0xfffffffffffff85@@
cmp_ecx_2,
jmp_0xffffffffffffff54,
mov_rdx_qword_ptr_[rbp-0x98],
call_0x9d@@
call_0xfffffffffffff84@@
je_0xee,
jne_0x81,
mov_dword_ptr_[rax+0x2@@
sub_rsp_0x118,
+rdx*4@@
_0x36,
_0xdf,
_xmm7@@
jmp_0xffffffffffffff4e,
jmp_5,
jmp_qword_ptr_[rax*8+0x@@
lea_rdi_[rip+0x2d@@
mov_r15d_dword_ptr_[rsp+0x@@
aaaa@@
cmp_al_0x3a,
cmp_edi_-1,
jne_0xffffffffffffffb6,
mov_r9d_r8d,
si+0x38],
call_0xffffffffffff4e@@
call_0xffffffffffffe3@@
cxx1112basic
jne_0xfffffffffffffff@@
call_0xffffffffffff10@@
call_qword_ptr_[rax+0x28],
jmp_0xffffffffffffff58,
lea_rsi_[rip+0x3b@@
lea_rsi_[rip+0x3e@@
mov_dword_ptr_[rip+0x22@@
mov_eax_dword_ptr_[rbp+0x10],
mov_qword_ptr_[rsp+0x48]_rcx,
mov_r12d_dword_ptr_[rax],
movsxd_rcx_edx,
test_byte_ptr_[r12+0x1@@
72@@
746,
call_0xfffffffffff86@@
mov_dword_ptr_[rsp+0xc]_1,
mov_rdi_qword_ptr_[rsp+0x1@@
sd_xmm1@@
+rdx]_0,
_di,
jne_0x8f,
mov_ecx_dword_ptr_[rsi],
mov_qword_ptr_[rbp-8]_0,
mov_r8_r9,
mov_r9d_edx,
8]_r10,
_0x6f,
mov_r12_r9,
call_0xffffffffffff99@@
mov_rax_qword_ptr_[rip+0x20a@@
repne_scasb_al_byte_ptr_[rdi],
2+@@
cmp_r14_rax,
jmp_0xffffffffffffff5b,
lea_rcx_[rdx+rax],
278],
and_ax@@
cmp_eax_0x2f,
lea_rdi_[rip+0x2b@@
mov_rsi_qword_ptr_[rbp-0x20],
test_al_0x40,
test_byte_ptr_[rax@@
1c]@@
je_0xdb,
mov_dword_ptr_[rsp+0xc]_r9d,
mov_rdx_qword_ptr_[r15+0x@@
_0xf000,
div_dword_ptr_[r@@
lea_r8_[rsp+0x10],
mov_eax_dword_ptr_[rbp-0x4c],
mov_esi_dword_ptr_[rip+0x20@@
mov_qword_ptr_[rsp+0x98]_0,
mov_r10_rsi,
mov_rbx_qword_ptr_[rbp-0x18],
a8]_rax,
je_0xcb,
mov_edi_0x413@@
mov_edi_dword_ptr_[rbp-0x@@
mov_edx_dword_ptr_[rbx+0xc],
mov_rcx_qword_ptr_[rbp],
add_dword_ptr_[rip+0x20@@
call_0xfffffffffffefa@@
jp@@
mov_qword_ptr_[rsi+@@
push_r11,
si+0x40],
sub_rax_rbx,
1]_eax,
221]_0x80,
a]@@
cmp_rax_3,
mov_qword_ptr_[rbp]_rbx,
mov_rbp_r9,
mov_rsi_qword_ptr_[rbp-0x30],
movsd_xmm0_qword_ptr_[rsp+8],
sgr
jmp_0xffffffffffffb@@
jne_0xffffffffffffffb3,
js_0xd,
lea_r8_[rip+0x4@@
lea_r8_[rip+0x6@@
jne_0xffffffffffffffb0,
mov_r14_r9,
mov_rax_qword_ptr_[rip+0x211@@
sub_rsp_0xf8,
mov_esi_dword_ptr_[rsp+8],
add_ebx_eax,
call_0xffffffffffff17@@
cmp_eax_0x30,
jmp_0x39,
xim
14+0x30],
8]_r9d,
_0xffff8701,
and_eax_0x3f,
expand
mov_r14_rbx,
mov_rdx_-0x@@
je_0xe5,
jne_0x92,
mov_dword_ptr_[rbp-0xc]_0,
]_bx,
add_r14d@@
cmp_r9b@@
jb_0xfffffffffffffe@@
je_0xfffffffffffffff1,
jne_0x71,
jne_0x7e,
mov_dword_ptr_[rsp+0x10]_r8d,
mov_edx_0x80,
mov_qword_ptr_[rbp-0x58]_rdi,
mov_rdi_qword_ptr_[r12+0x30],
924@@
je_0xd9,
lea_rax_[rsp+0x38],
+rax*2@@
call_0xfffffffffffc5@@
cmp_qword_ptr_[rbp-0x48]_0,
mov_esi_0x2e,
dpkg
jne_0x99,
mov_r8d_0x1@@
object
shl_edx_cl,
2+1]@@
lea_rdx_[rip+0x9@@
mov_rax_qword_ptr_[rip+0x224@@
x
jmp_0xffffffffffffff35,
jmp_0xffffffffffffffdd,
lea_rax_[rip+0x8@@
movsx_edx_al,
or_r8d@@
je_0xfc,
lea_rsi_[rsp+0x50],
mov_esi_0x4a@@
mov_rdi_qword_ptr_[rbx+0x38],
mov_rdx_qword_ptr_[r13+0x@@
+5],
190],
call_0xffffffffffff6f@@
cvtsi2ss_xmm0@@
mov_rdx_qword_ptr_[r14],
+rdx+1],
_ah,
_r12_rax,
_xmm0@@
call_0xfffffffffffff96@@
cccccccd,
fffffffffffffff,
movaps_xmmword_ptr_[rsp+0x40]_xmm0,
movzx_r14d@@
14*8],
250],
jmp_0xffffffffffffff20,
max
mov_qword_ptr_[rdi+@@
mov_r8d_dword_ptr_[rsp],
150@@
cmp_qword_ptr_[rsi+0x@@
je_0x10d,
je_0xffffffffffffffe3,
jmp_0xffffffffffffff5f,
jne_0x80,
lea_rdx_[rax+0x10],
mov_edx_dword_ptr_[rax+0xc],
push_qword_ptr_[rbp-0x@@
s0
call_0xfffffffffffefc@@
call_0xfffffffffffff86@@
cmp_dword_ptr_[rsi+@@
mov_rax_qword_ptr_[rbp-0x118],
b8]_rax,
call_0xfffffffffffff6b@@
je_0xe1,
mov_dword_ptr_[rsi]_1,
mov_edx_dword_ptr_[r13+0x@@
movzx_eax_word_ptr_[rbp-0x@@
movzx_ebx_word_ptr_[r@@
shr_eax_1,
call_0xfffffffffffff7a@@
jmp_0xffffffffffffff52,
jmp_0xffffffffffffffe0,
lea_r11@@
mov_qword_ptr_[rbp-0xb0]_rax,
sar_ecx@@
_ecx_eax,
call_0xfffffffffffeea@@
jne_0x3c@@
_0x7e,
addr
cmp_r14d_3,
d0ev
mov_edx_r9d,
mov_r8d_r15d,
neg_edx,
shl_rdi@@
140],
_0xf0,
cmp_dword_ptr_[rdx@@
je_0xda,
jmp_0x44,
mov_ecx_dword_ptr_[rsp+0x10],
_ch@@
call_0xffffffffffff26@@
call_qword_ptr_[rbx+0x1@@
mov_dword_ptr_[rip+0x25@@
mov_dword_ptr_[rsp+0x10@@
mov_rax_qword_ptr_[rsp+0x70],
008,
5a4]@@
jmp_0xffffffffffffff3d,
test_byte_ptr_[rax+0x428]_8,
4]_r13d,
add_eax_3,
cvttsd2si_rax_xmm0,
je_0xf5,
mov_r13_r9,
_bp,
cmp_rdi_rsi,
je_0xffffffffffffffd9,
+rax*8+0x@@
call_0xfffffffffff7b@@
call_0xfffffffffffef0@@
cmp_dword_ptr_[rdi+0x1@@
+0x@@
and_rdi@@
movzx_r14d_byte_ptr_[r@@
2c8],
all
cmp_qword_ptr_[rbx+8]_0,
je_0xffffffffffffffe5,
_dword_ptr_fs:[0x18],
lea_rax_[rip+0x6@@
sub_eax_2,
130@@
call_0xfffffffffffee0@@
je_0xf6,
lea_rdi_[rip+0x1d@@
mov_rdi_qword_ptr_[r14+8],
movzx_edx_byte_ptr_[rsi],
qam
_0xa8,
je_0xffffffffffffffd7,
jmp_0xffffffffffffff55,
pcmpeqb_xmm0_xmm1,
30]_rdx,
4]_0xa,
cmp_qword_ptr_[rdi+@@
mov_dword_ptr_[rsp+0x2c]_0,
mov_eax_dword_ptr_[rsp+0x30],
mov_edi_0xd,
mov_rdi_qword_ptr_[rax+0x18],
c]_0x30,
lea_rdi_[rsp+0x1@@
mov_word_ptr_[rax+0x1@@
004,
adc@@
call_rdx,
je_0xd6,
mov_dword_ptr_[rbp]_0,
mov_dword_ptr_[rsp+0x28]_0,
mov_rbx_qword_ptr_[rdi+0x10],
movsxd_rdi_eax,
unchecked
8-8],
_0xf4240,
cmovne_eax_edx,
mov_qword_ptr_[rdi+0x10]_0,
48]_eax,
_qword_ptr_[rsp+0x68],
c2ev
call_0x98@@
jmp_0xffffffffffffff48,
lea_rcx_[rdx+1],
mov_eax_dword_ptr_[rip+0x25@@
movaps_xmmword_ptr_[rbp-0x80]_xmm0,
vrfy
and_eax_0x7f,
cmove_rcx_rax,
jmp_0xffffffffffffff44,
jmp_0xffffffffffffff4b,
mov_dword_ptr_[rbp-0x3c]_eax,
mov_r9d_edi,
movups_xmmword_ptr_[rax]_xmm0,
shl_rax_6,
test_dl_4,
380,
3]_1,
lutil
mov_r9d_ecx,
test_byte_ptr_[rdi+0x5a6]_1,
000],
mov_edx_dword_ptr_[rdx+0x@@
mov_rax_qword_ptr_[r12+0x18],
movsx_rbx_byte_ptr_[r@@
2c0,
add_rdi_0x20,
f]_al,
ffff,
je_0xe0,
jmp_0xffffffffffffff33,
mov_dword_ptr_[rax+4]_edx,
_ymmword_ptr_[r@@
add_rax_r12,
bp+0x38],
call_0xfffffffffff7d@@
call_0xfffffffffffefb@@
cmp_rdi_rbp,
je_0xea,
jne_0xffffffffffffffa7,
mov_r10_qword_ptr_[rsp],
_sil@@
jmp_0xffffffffffffff47,
jne_0xffffffffffffffb2,
lea_r10d_[r@@
mov_rdi_qword_ptr_[rsp+0x70],
or_r12d@@
sub_esi_1,
lea_rdi_[rsp+0x50],
mov_ecx_dword_ptr_[rax+8],
_rdx_rax,
call_0x4e@@
call_0xfffffffffffedd@@
call_0xfffffffffffefd@@
je_0xe9,
jmp_0xfffffffffffffee@@
mov_rdx_qword_ptr_[rsp+0x68],
002,
3a0,
8]_r14d,
allocate
jmp_0xffffffffffffff5e,
mov_byte_ptr_[r13@@
mov_qword_ptr_[rsp+0xd8]_rax,
mov_rax_qword_ptr_[rbp-0x100],
mov_rsi_qword_ptr_[rsp+0x58],
movdqu@@
test_r14b@@
jmp_0x3a,
jmp_0xffffffffffffff36,
mov_rcx_qword_ptr_[rax+0x20],
neg_rax,
sub_rsp_0xf0,
158],
add_rsp_0x60,
je_0xffffffffffffffe8,
mov_dword_ptr_[rsp]_r8d,
mov_edi_0xe,
mov_r9_qword_ptr_[rsp+0x20],
mov_rcx_qword_ptr_[rsp+0x78],
or_byte_ptr_[rbx+0x@@
s3
setg_al,
call_0x96@@
jmp_0x41,
mov_r13_r12,
mov_r9d_dword_ptr_[rax+0x18],
mov_rax_qword_ptr_[rbp-0xe0],
mov_rdi_qword_ptr_[r15+8],
test_r11_r11,
6c]_eax,
call_0xfffffffffff2@@
cmp_dword_ptr_[r14+0x@@
je_0x85,
jmp_0xffffffffffffff45,
movaps_xmmword_ptr_[rbp-0x50]_xmm3,
movaps_xmmword_ptr_[rbp-0x60]_xmm2,
0]_ebx,
1a0@@
_bl@@
add_edx_ecx,
add_qword_ptr_[rbp-0x10]_1,
call_0x94@@
jmp_0xffffffffffffff5a,
248],
call_0xfffffffffffeff@@
call_0xfffffffffffff65@@
je_0xdf,
mov_rax_qword_ptr_[rbp+0x120],
movsx_edi_byte_ptr_[rbx],
call_0x9e@@
call_0xfffffffffffff87@@
call_0xfffffffffffff88@@
cmp_rsp@@
jne_0x8e,
jne_0x9a,
lea_rcx_[rsp+0x30],
mov_dword_ptr_[rsp+0x24]_0,
mov_dword_ptr_[rsp]_edx,
mov_qword_ptr_[rax+0x28]_0,
mov_qword_ptr_[rbp-0x90]_r8,
tty
word
10]_eax,
and_eax_0xfffffffe,
call_0xfffffffffffa7@@
jmp_0xffffffffffffffda,
mov_dword_ptr_[rsp+0x3c]_eax,
movzx_ecx_cl,
js_0xa@@
lea_r8_[rip+0x3@@
mov_ecx_dword_ptr_[rsp+0x1c],
mov_esi_0x413@@
movzx_eax_word_ptr_[rax+rax+0x4@@
0]_ebp,
call_0xfffffffffffeed@@
connection
flush
mov_rax_qword_ptr_[rip+0x4@@
mov_rcx_qword_ptr_[rbx+0x20],
mov_eax_dword_ptr_[rip+0x24@@
mov_ebx_dword_ptr_[rip+0x2@@
add_rcx_0x10,
cmp_byte_ptr_[rcx]_0,
inode
jne_0xffffffffffffffa2,
jne_0xffffffffffffffaa,
mov_dword_ptr_[rbx+0x7@@
mov_esi_0x410@@
plug
call_0xfffffffffffefe@@
divsd_xmm0_xmm1,
je_0xf9,
test_byte_ptr_[rdx+0x134]_0x40,
128],
580,
je_0xffffffffffffffe4,
mov_qword_ptr_[rsp+0xc@@
jne_5,
lea_rdi_[rip+0x1e@@
mov_ecx_dword_ptr_[rbx],
28]_xmm0,
cmp_qword_ptr_[rax+8]_0,
jmp_0xffffffffffffff42,
lea_rdx_[rax+2],
lea_rdx_[rsp+0x28],
mov_dword_ptr_[rbp-0x14]_0,
mov_ebx_r8d,
mov_edi_0x416@@
mov_rsi_qword_ptr_[r15+0x@@
test_byte_ptr_[rip+0x20@@
12+0xc],
150],
660,
mov_rdx_qword_ptr_[rbx+0x28],
960,
and_ah@@
call_0xfffffffffffa6@@
call_0xfffffffffffeec@@
cmp_byte_ptr_[rdx]@@
cmp_rbp_rdx,
lea_rax_[rax+r@@
560,
je_0xd8,
jne_0xffffffffffffffb5,
mov_dword_ptr_[rax+8]_0,
mov_rdi_qword_ptr_[rbp-8],
movzx_eax_byte_ptr_[rip+0x20@@
sar_eax_1,
20]_rcx,
4]_dl,
cx+0x28],
di]_rax,
je_0xec,
mov_qword_ptr_[rdx+8]_rax,
mov_rdx_qword_ptr_[rbx+0x1@@
5c0,
and_eax_0x20,
ax+rdx*@@
call_0x33@@
call_0xfffffffffff5a@@
call_0xfffffffffffeda@@
cmp_byte_ptr_[rbp]@@
fd0,
lea_rsi_[rip+0x1f@@
mov_ecx_0xc,
mov_rax_qword_ptr_[rip+0x21e@@
260,
3c0,
call_0xfffffffffff5c@@
jmp_0xffffffffffffff3c,
jmp_0xffffffffffffff49,
jne_0xffffffffffffffa9,
mov_qword_ptr_[rdx]_rcx,
movsxd_rdx_ebp,
p@@
call_0x4f@@
je_0xde,
je_0xffffffffffffffdc,
jmp_0xffffffffffffff41,
movzx_r15d_byte_ptr_[r@@
shl_edx_8,
70]_1,
add_rdi_0x10,
mov_eax_dword_ptr_[rax+r@@
mov_rdx_qword_ptr_[rbp+0x18],
test_dh_4,
138],
198],
28]_rcx,
bx+0x48],
cmovne_rax@@
imul_ecx@@
je_0xff,
mov_dword_ptr_[rsp+0x38]_0,
record
lea_r9_[rip+0x2@@
lea_rax_[rsp+0x90],
15*8],
360,
blkdev
call_0xfffffffffffff7b@@
jmp_0xffffffffffffff4d,
lea_rsi_[rip+0x67@@
mov_rdx_qword_ptr_[rbp-0x68],
style
test_r8b@@
call_0xfffffffffffb9@@
jne_0xa1,
lea_rax_[rbp+r@@
mov_eax_dword_ptr_[rbx+0x28],
mov_edi_0x417@@
mov_r12d_dword_ptr_[rsp+0x@@
sete_r8b,
1c0,
call_0xffffffffffffc4@@
call_0xfffffffffffff67@@
di*8],
jmp_0xffffffffffffff37,
lea_rsi_[rip+0x4d@@
mov_edi_0x415@@
260],
9+1],
_qword_ptr_fs:[rax],
_r15d_1,
imul_esi@@
jmp_0xffffffffffffff3f,
mov_eax_0x5@@
mov_edx_0x18,
movzx_r10d@@
80]_rax,
cmp_r8d_1,
je_0xd7,
jne_0x94,
mov_r14_r13,
mov_rdi_qword_ptr_[rbx+0x50],
spw
190@@
cmove_rdx_rax,
cx+rdx],
je_0xf0,
mov_qword_ptr_[rbx+0x20]@@
call_0xb0@@
call_0xfffffffffffff6e@@
call_0xfffffffffffff80@@
ja_9,
je_0xffffffffffffffe7,
mov_rdx_qword_ptr_[rdx+0x70],
movsx_rdx_byte_ptr_[r@@
_r14d_eax,
lea_rcx_[rip+0x8@@
mov_qword_ptr_[rsp+0x28]_rdi,
mov_rdi_qword_ptr_[r12+0x10],
mov_word_ptr_[rbp+0x@@
selinux
si+rdx],
+rax*2+1]_0x20,
bx*2],
help
je_0xffffffffffffffd6,
je_0xfffffffffffffff2,
mov_rax_qword_ptr_[rbp+0x40],
movsd_xmm0_qword_ptr_[rbp-0x@@
call_0xffffffffffffa7@@
je_0xe4,
je_0xf1,
jg_0x2@@
loopcxt
mov_dword_ptr_[r14]_eax,
mov_dword_ptr_[rbp-0x10]_eax,
mov_esi_0x412@@
mov_rsi_qword_ptr_[r13+0x@@
shl_eax_0x10,
call_0x6f@@
call_0xfffffffffffecc@@
mov_r15d_r8d,
quoting
call_0xffffffffffff44@@
cmove_rbx_rax,
jmp_0xffffffffffffff1d,
mov_r8_qword_ptr_[rax],
mov_r8d_dword_ptr_[rip+0x2@@
mov_r9d_dword_ptr_[rsp+8],
mov_rax_qword_ptr_[rip+0x20d@@
mov_rcx_qword_ptr_[rbp-0x40],
jmp_0xffffffffffffff3e,
jne_0xffffffffffffff9a,
mov_r12d_r8d,
mov_rax_qword_ptr_[rip+0x20b@@
2a0,
_0x10000000,
call_0xfffffffffff5b@@
cmp_r13d_eax,
jmp_0x3b,
lea_rax_[rbp-0x1010],
movsxd_r10@@
008],
30]_2,
_-@@
_xmm0_xmm3,
call_0xfffffffffff80@@
je_0xfd,
je_0xffffffffffffffe0,
mov_rax_qword_ptr_[rip+0x28@@
mov_rax_qword_ptr_[rsp+0x80],
mov_rax_qword_ptr_[rsp+0x90],
mov_rbp_qword_ptr_[rip+0x20@@
5]_1,
call_0xcc@@
imul_rsi@@
mov_esi_0x4c@@
mov_rax_qword_ptr_[rax*8+0x4@@
4c]_1,
add_rbp_0x10,
cmp_rbp_r12,
je_0xef,
mov_qword_ptr_[rbp-0xa0]_rax,
movzx_eax_byte_ptr_[rbp+0x@@
340,
_0x400@@
build
cmp_r14b@@
cmp_rbx_r14,
jmp_0x4d,
jmp_0xffffffffffffff31,
mov_dword_ptr_[rsp+0x40]@@
movzx_ecx_byte_ptr_[rsi@@
push_qword_ptr_[rip+0x@@
test_dil@@
1c]_1,
8-0x@@
cmp_r12d_-1,
je_0x105,
jmp_0xffffffffffffff1e,
jmp_0xffffffffffffff2e,
jmp_0xffffffffffffff4a,
mov_edi_0x2@@
mov_rax_qword_ptr_[rdi+0x40],
1a0,
call_0xffffffffffff0a@@
je_0xf4,
jne_0xac,
mov_r10_qword_ptr_[rsp+0x10],
mov_rax_qword_ptr_[rbp+0x28],
jne_0x90,
jne_0x93,
jne_0x9b,
mov_ecx_0xb,
mov_ecx_dword_ptr_[rdi+0x@@
mov_r8d_r10d,
mov_rax_qword_ptr_[rip+0x220@@
mul_rdx,
mutex
call_0xfffffffffff5d@@
call_0xffffffffffffb8@@
jmp_0xfffffffffffffed@@
jne_0xaf,
jne_0xc3,
_0x73,
call_0xfffffffffffef7@@
jmp_0xffffffffffffff39,
mov_edx_dword_ptr_[rbp-0x2c],
mov_esi_0x407@@
mov_qword_ptr_[rbp-0x30]_0,
mov_qword_ptr_[rbx+0x38]_rax,
mov_rsi_qword_ptr_[rbp-0x50],
si*2],
5c]@@
call_0xfffffffffffff6a@@
lea_rdi_[rdx@@
mov_edi_0x40a@@
movdqa_xmm0_xmmword_ptr_[rsp+0x@@
unix
add_rcx_rdx,
cmp_dword_ptr_[rbx@@
cmp_rdi_qword_ptr_[r@@
fuse
jmp_0xffffffffffffff2d,
jne_0xa3,
mov_rbx_qword_ptr_[rsp],
call_0xfffffffffffff7c@@
jne_0x9d,
js_0x8@@
lea_r8_[rip+0xe@@
lea_rsi_[rip+0x4a@@
mov_esi_0x415@@
mov_qword_ptr_[rbp-0x20@@
mov_r8_qword_ptr_[rsp+0x28],
mov_rdx_qword_ptr_[rbp-0x88],
sub_rdi_rax,
call_0xfffffffffff7a@@
cmp_byte_ptr_[rax+0x1@@
je_0xe8,
mov_eax_dword_ptr_[rcx],
mov_rax_qword_ptr_[rbp+0x30],
movsxd_rax_esi,
msg
test_dl_1,
bp+0x14],
call_0xffffffffffff00@@
jmp_0xffffffffffffff46,
mov_eax_dword_ptr_[rbp-0x40],
mov_edi_0x41a@@
mov_rax_r9,
or_ebp@@
call_0xfffffffffffff7d@@
lea_r13d@@
mov_dword_ptr_[rsp+0x18]_edx,
mov_r13_qword_ptr_[rip+0x2@@
movzx_eax_byte_ptr_[rax+0x1@@
30]_xmm0,
_edx_ecx,
mov_qword_ptr_[rax]_rsi,
mov_rax_qword_ptr_[rax+0x68],
mov_rax_qword_ptr_[rbx+0x48],
2]_eax,
]_bp,
_0xfffffff8,
and_rax_0xfffffffffffffff0,
ja_0x10@@
jmp_0xffffffffffffff29,
lea_r9d@@
lea_rdi_[rip+0x37@@
lea_rdi_[rip+0x3c@@
call_0xffffffffffff64@@
cccc@@
je_0xe7,
jmp_0xffffffffffffff32,
mov_rax_qword_ptr_[r13+0x10],
movsxd_rax_dword_ptr_[rsp+0x@@
sar_rax_1,
save
-1]_al,
add_r15_8,
bx+rax*8],
call_0xca@@
color
di+0x98],
jne_0x91,
mov_qword_ptr_[rsp]_r10,
mov_rsi_qword_ptr_[r12+8],
180@@
8]_0x2@@
jne_0xffffffffffffffaf,
shl_r13@@
_0x44,
add_rbx_0x18,
cmp_eax_0xffff86@@
cmp_r13d_4,
cwde,
je_0x82,
je_0xffffffffffffffd3,
jne_0xffffffffffffff98,
mov_dword_ptr_[rbp-0x44]_eax,
mov_rbp_qword_ptr_[rbx+8],
mov_esi_0xc,
mov_rax_qword_ptr_[rbp-0x428],
sub_edi_eax,
cmp_qword_ptr_[rbx+0x10]_0,
d8]_rax,
je_0x11d,
je_0xf8,
je_0xffffffffffffffdd,
mov_qword_ptr_[r13]_0,
mov_rdi_qword_ptr_[rax+0x40],
movaps_xmmword_ptr_[rsp+0x70]_xmm0,
and_r10d@@
call_0xfffffffffffc3@@
call_0xfffffffffffeeb@@
call_0xffffffffffffb5@@
cmp_ebx_4,
cqo,
jmp_0xffffffffffffff0e,
mov_edx_dword_ptr_[rbp-0x20],
mov_rax_qword_ptr_[r15+0x10],
mov_rsi_qword_ptr_[rsp+0x60],
or_dl_al,
call_0x22@@
call_0x23@@
call_0xfffffffffffff77@@
mov_r12_r13,
mov_rdx_qword_ptr_[rbp-0x70],
0a],
1c8,
je_0xffffffffffffffc2,
jle_9,
jmp_0x4c,
jne_0xfffffffffffffff7,
lea_r8_[rip+0x8@@
mov_qword_ptr_[rax+0x4@@
110,
cmp_dword_ptr_[rbx]@@
cmp_r15_rax,
cx+rdx*4],
je_0xc@@
jne_0xa5,
lea_rsi_[rip+0x57@@
lea_rsi_[rsp+0x28],
mov_dword_ptr_[rcx+@@
mov_edi_r8d,
movzx_edx_byte_ptr_[rax+2],
0]_dl,
28]_2,
4c0,
add_r15_rax,
call_0xfffffffffff88@@
cmp_rax_r13,
cmp_rsi_qword_ptr_[r@@
heap
jmp_0xffffffffffffff14,
mov_dword_ptr_[rsp+8]_r9d,
mov_qword_ptr_[rcx]_0,
mov_rbx_qword_ptr_[rax+8],
9a0,
lea_rdx_[rax+rax*2],
mov_edx_dword_ptr_[rax+0x30],
mov_esi_0x3d,
mov_r8_qword_ptr_[rsp+0x20],
movzx_r11d_byte_ptr_[r@@
sub_edx_ecx,
05],
add_r8_1,
je_0xfb,
jmp_0xffffffffffffff24,
lea_rsi_[rip+0x40@@
_0x1ff,
cmp_r15d_1,
di+rax],
di+rdx@@
je_0xffffffffffffffd4,
jmp_0x40,
jne_0xa0,
lea_rdi_[rip+0x30@@
lea_rsi_[rax+0x@@
mov_r10_qword_ptr_[rsp+0x18],
mov_r8_qword_ptr_[rbx],
4]_0x20,
call_0xffffffffffff5f@@
je_0xffffffffffffffef,
jmp_0xffffffffffffff30,
mov_dword_ptr_[r15]_eax,
mov_qword_ptr_[rdx+r@@
mov_rdi_qword_ptr_[rsp+0x68],
movsxd_rax_dword_ptr_[rip+0x@@
call_0x84@@
call_0xfffffffffff7c@@
cursor
je_0xeb,
jne_0x8b,
jne_0xffffffffffffffad,
mov_ebp_dword_ptr_[rsp+0x@@
mov_qword_ptr_[rax+rdx*@@
mov_rcx_qword_ptr_[rax+0x18],
call_0x47@@
cmp_eax_0x16,
lea_rcx_[rsp+0x28],
mov_dword_ptr_[rbx+8]_eax,
_0x40000,
call_0xfffffffffffecd@@
cx+@@
mov_dword_ptr_[r15+@@
mov_rax_qword_ptr_[rbp-0x138],
mov_rdx_qword_ptr_[rdx+0x18],
mov_rsi_qword_ptr_[rax+0x20],
-1@@
cmp_al_0x22,
jmp_0x49,
lea_rcx_[rax+0x@@
mov_rsi_qword_ptr_[r15+0x18],
page
test_ebx@@
3e0,
bx+rax+1],
call_0xfffffffffffa9@@
je_0xffffffffffffffcf,
jne_0x9e,
mov_dword_ptr_[rdx]_ecx,
mov_eax_dword_ptr_[rip+0x3@@
mov_edx_dword_ptr_[rax+0x28],
sub_r13d@@
_bh@@
je_0xe3,
je_0xfffffffffffffff4,
jmp_0x4a,
lea_rcx_[rip+0x12@@
mov_qword_ptr_[rsp+0x90]_rax,
mov_word_ptr_[rdi+@@
movzx_esi_sil,
add_rcx_4,
add_rsi_4,
jne_0x98,
jne_0xffffffffffffffa6,
lea_rdx_[rip+0x1b@@
mov_esi_0x41e@@
test_byte_ptr_[rsi@@
8]_r8d,
_r11w,
and_edi_1,
call_0xfffffffffffaf@@
je_0xf2,
je_0xffffffffffffffc6,
jmp_0xffffffffffffff4f,
mov_dword_ptr_[rsp+0x34]_eax,
mov_esi_0x420@@
mov_rsi_qword_ptr_[rdi],
call_0xcb@@
call_0xfffffffffffff54@@
fe0,
je_0xf7,
jmp_0xffffffffffffff1c,
jmp_0xffffffffffffff2a,
jmp_0xffffffffffffff43,
lea_rsi_[rsp+0x1@@
re
370,
call_0xfffffffffffff5d@@
jmp_0xffffffffffffff2f,
mov_qword_ptr_[rax+0x40]_rdx,
mov_qword_ptr_[rsp+rax+0x@@
mov_r13d_0xffffffff,
_0xffffffea,
cmp_r12_rbp,
je_0x12c,
mov_rdx_qword_ptr_[r15],
shl_rdx@@
sub_rax_rbp,
vdbe
140,
cmp_qword_ptr_[rax+0x20]_0,
cmp_rax_2,
je_0x12d,
jle_0xc,
jne_0x97,
lea_esi_[rax+1],
mov_rsi_qword_ptr_[r15+8],
sp+7],
1b0@@
1c0],
cmp_r12d_ebx,
jbe_0xc,
lea_r11_[rip+0x@@
lea_rdi_[rip+0x38@@
mov_dword_ptr_[rsp+0xb@@
mov_ecx_dword_ptr_[r15+0x@@
mov_qword_ptr_[rbp-0xd8]_rax,
mov_rbx_r9,
mov_rdx_qword_ptr_[r15+0x18],
movzx_eax_word_ptr_[rip+0x2@@
108,
c]_ebx,
je_0x102,
lea_rax_[rip+0x5@@
mov_dword_ptr_[r8+0x@@
mov_ecx_0x200,
mov_r10d_1,
_0x5b,
call_0xfffffffffffed0@@
call_0xfffffffffffff2@@
je_0xffffffffffffffdb,
jne_0x8d,
mov_r10_rax,
mov_r8d_dword_ptr_[rax+4],
mov_rdx_qword_ptr_[rax+0x48],
mov_rsi_r11,
scan
cmp_byte_ptr_[rax+1]@@
cmp_byte_ptr_[rdi+0x1@@
field
jmp_0x3e,
jne_0xa2,
lea_rdx_[rax*4],
call_0xfffffffffffff5b@@
cmp_esi_2,
mov_dword_ptr_[rdi]@@
mov_qword_ptr_[rsp+8]_rbx,
mov_r12_qword_ptr_[rbx],
server
1f0@@
7c]_eax,
cvtsi2sd@@
jmp_0xfffffffffffffefd,
jne_0xb2,
mov_qword_ptr_[rsp+0xc0]_0,
movsd_qword_ptr_[rsp+8]_xmm0,
_rbx_rax,
add_rdx_0x20,
call_0xffffffffffffb6@@
je_0x103,
je_0x106,
mov_qword_ptr_[r12+@@
mov_qword_ptr_[rbp]_rdx,
mov_r15_r13,
5a0,
je_0x100,
mov_ebx_8,
mov_rcx_qword_ptr_[rbp-0x50],
o@@
rtnl
test_r@@
8+0x18],
call_0xfffffffffffb6@@
call_0xffffffffffff4f@@
jmp_0x43,
lea_rax_[rdx+8],
lea_rdi_[rip+0x3a@@
lea_rsi_[rip+0x5a@@
mov_eax_dword_ptr_[rdi+0x18],
movzx_eax_word_ptr_[rbx+0x@@
cmp_qword_ptr_[rcx@@
jmp_0xffffffffffffff3a,
jmp_0xffffffffffffff3b,
lea_rdx_[rip+0x1c@@
900,
call_0xfffffffffffff68@@
call_0xfffffffffffff7e@@
cmp_cl_9,
je_0x109,
jne_0xffffffffffffffa0,
lea_rdi_[rip+0x3d@@
mov_qword_ptr_[rbp+@@
mov_rax_qword_ptr_[rip+0x20c@@
mov_rcx_qword_ptr_[rcx+0x@@
710,
call_0xffffffffffff3f@@
disp
je_0xffffffffffffffbd,
mov_byte_ptr_[rbx+r@@
mov_r8_qword_ptr_[rbx+0x@@
or_word_ptr_[r@@
report
dev
inc_ebp,
je_0xf3,
mov_qword_ptr_[rsp+0x50]_r8,
6]_1,
9]_al,
bx+0x60],
cmp_al_0x25,
cmp_ebp_3,
lea_rsi_[rip+0x60@@
movzx_ecx_al,
shr_r8d@@
call_0xc0@@
call_0xfffffffffffff60@@
je_0xffffffffffffffce,
lea_r8_[rip+0x5@@
mov_eax_dword_ptr_[rbp-0x10@@
mov_ebp_r8d,
mov_esi_dword_ptr_[rbx],
mulsd_xmm0@@
w_8,
c]_ax,
call_0xfffffffffffecb@@
call_0xfffffffffffff6d@@
cmove_rdx@@
mov_qword_ptr_[r8+0x@@
mov_qword_ptr_[rbp+0x20]_rax,
mov_r9d_esi,
mov_rax_qword_ptr_[r8+0x@@
mulsd_xmm0_xmm1,
names
_0xe@@
add_word_ptr_[r@@
ax+0xf0],
call_0x29@@
cmp_si@@
je_0x123,
mov_ecx_0x10@@
mov_qword_ptr_[rbp+0x18]_rax,
0]_0x10,
call_0xffffffffffffa8@@
fc0,
je_0xffffffffffffffc8,
je_0xffffffffffffffd0,
jmp_0xffffffffffffff25,
lea_eax_[rdx+1],
lea_rax_[rbp-0x90],
proc
sbb_r@@
sd_xmm0_qword_ptr_[r@@
show
test_ah_0x10,
3c]_eax,
70f,
b9a@@
ea0,
inc_rcx,
jne_0xffffffffffffff8a,
jne_0xffffffffffffff92,
mov_qword_ptr_[rsp+0xe8]_rax,
mov_rax_qword_ptr_[rbp-0x1@@
movabs_rax_0x3@@
call_0xffffffffffff22@@
di+rdx],
lea_rdx_[rsp+0x50],
mov_dword_ptr_[rbp-0x4c]_eax,
mov_r8d_dword_ptr_[rax],
mov_rbp_qword_ptr_[rsp+8],
mov_rdi_qword_ptr_[rax+0x20],
mov_rsi_qword_ptr_[rax+r@@
pop_r10,
sepol
call_0xfffffffffff9f@@
cmp_dword_ptr_[rbp-4]@@
lea_rdi_[rbx+0x1@@
lea_rdi_[rip+0x3b@@
mov_dword_ptr_[rbx+4]_eax,
mov_rdx_qword_ptr_[rax+0x1@@
2c0],
_dx_8,
call_qword_ptr_[r12+0x@@
cmp_edx_4,
decode
initialize
jmp_0xffffffffffffff0b,
js_0x6@@
mov_qword_ptr_[rbx+0x40]_rax,
mov_qword_ptr_[rsp+0x38]_rsi,
mov_rsi_qword_ptr_[rbp+0x10],
sub_r12d_1,
160,
220,
6666667,
]_r15,
jne_0x9f,
jne_0xffffffffffffffa5,
movzx_eax_word_ptr_[rbp+0x@@
368],
8]_3,
call_0x44@@
call_0xfffffffffffa4@@
cmp_eax_0xa@@
dx]_eax,
mov_byte_ptr_[r14@@
mov_byte_ptr_[rbp+r@@
mov_rbp_r13,
c]_rax,
cmp_eax_0xc,
cmp_r12d_dword_ptr_[r@@
je_0xffffffffffffffd8,
lea_rsi_[rip+0x5c@@
8]_dl,
_0x66,
dec_rax,
jmp_0xffffffffffffff2c,
lea_r8_[rip+0x12@@
mov_ecx_dword_ptr_[rsp+0x18],
mov_rdx_qword_ptr_[rax+0x70],
sub_esi_eax,
50]_2,
call_0xffffffffffff95@@
jmp_0xffffffffffffff1a,
jmp_0xffffffffffffff23,
jmp_rcx,
jne_0xffffffffffffffab,
jne_0xffffffffffffffac,
mov_rdx_qword_ptr_[rsp+0x60],
movsxd_rdx_r12d,
call_0xfffffffffffb8@@
call_qword_ptr_[rbx+0x110],
cmp_dword_ptr_[rdx+0x@@
je_0xfe,
jmp_0xffffffffffffff21,
mov_qword_ptr_[rax+0x3@@
mov_qword_ptr_[rsp+0xe@@
2]_cx,
cmp_dword_ptr_[rsi+0x1@@
lea_rdi_[rip+0x34@@
lea_rdx_[rip+0x1d@@
mov_rdx_qword_ptr_[rbp-0x60],
12*4],
1c8],
1e0,
_cx@@
ax+0x60],
cmp_eax_0x22,
cmp_rdi_0x6bebc0,
jne_0xa4,
mov_r9d_r14d,
mov_rax_qword_ptr_[r15+0x1@@
mov_rax_qword_ptr_[rbp-0x128],
13+rax],
4]_dx,
5e0,
je_0xffffffffffffffec,
mov_r15_qword_ptr_[rax],
-0x1@@
258],
fts3
lea_eax_[rdx-0x1010101],
mov_qword_ptr_[rsp+0xb@@
add_rsp_0x118,
cmp_r12d_2,
je_0xffffffffffffffde,
je_0xffffffffffffffe1,
jmp_0xffffffffffffff17,
jne_0xffffffffffffff9f,
lea_r8_[rip+0xb@@
mov_eax_dword_ptr_[rbp+4],
mov_edx_dword_ptr_[rbx+4],
mul_edx,
400,
cmp_rax_0x6@@
cx+rax*8],
je_0xffffffffffffffd1,
jne_0x9c,
shl_r8@@
div_rsi,
inc_rdi,
jmp_0xffffffffffffff2b,
mov_rax_qword_ptr_[rip+0x2d@@
sbb_cl_0,
401,
44]_1,
9]_eax,
_ax@@
ip-0x@@
jmp_0x3d,
jne_0xaa,
mov_rcx_qword_ptr_[rdi],
mov_rsi_qword_ptr_[rsp+0x1@@
add_rcx_rsi,
call_0xfffffffffffeca@@
mov_rsi_qword_ptr_[rbx+0x28],
movsxd_rax_ecx,
test_ebp@@
xchg@@
call_0xffffffffffffa5@@
f3@@
je_0xffffffffffffffed,
lea_r8_[rip+0xd@@
mov_dword_ptr_[rsp+0x30]_0,
mov_ecx_r9d,
mov_edi_0x420@@
mov_qword_ptr_[rsp+0xa8]_0,
mov_r10_rdi,
13*@@
lea_edi_[rax@@
mov_r14d_dword_ptr_[rsp+0x@@
shl_eax_4,
61]_0,
number
setne_sil,
shl_rcx_3,
180],
ff0,
je_0x10b,
je_0xffffffffffffffdf,
jne_0xffffffffffffff8f,
jne_0xffffffffffffffa3,
mov_eax_dword_ptr_[rdx+8],
mov_qword_ptr_[rbp-8]_rdx,
mov_rdx_qword_ptr_[rip+0x3@@
movsx_rax_byte_ptr_[r@@
0003,
call_0x55@@
call_0x7e@@
jmp_0xffffffffffffff13,
jmp_0xffffffffffffff28,
lea_rax_[rsp+0x48],
r
r6hw
_xmm4,
call_0xfffffffffffff6c@@
jne_0x96,
jne_0xb4,
mov_esi_0x60@@
1a8],
7]_rax,
_0x72,
argp
call_0x46@@
call_qword_ptr_[r10],
cmp_qword_ptr_[r12+0x1@@
mov_dword_ptr_[r14+@@
args
call_0x5f@@
cmp_byte_ptr_[r13]_0,
cmp_ebp_ebx,
cmp_qword_ptr_[rcx+0x@@
function
mov_eax_dword_ptr_[rip+0x23@@
or_r9d@@
shr_ebx@@
350,
_rcx_rax,
call_0x64@@
cmp_byte_ptr_[rax+1]_0,
je_0x113,
je_0xffffffffffffffd2,
lea_rsi_[rbx+8],
mov_eax_dword_ptr_[rbx+0xc],
mov_r9d_dword_ptr_[rbp-0x@@
8-1],
je_0x125,
je_0xffffffffffffffda,
jne_0xffffffffffffffa1,
mov_eax_dword_ptr_[rbp-0x5c],
mov_qword_ptr_[rsp+0x10]_r10,
movzx_eax_byte_ptr_[rip+0x@@
1f0,
58]_eax,
add_r13_rax,
cmp_al_0x2b,
lea_r13_[rsp+0x30],
lea_r8_[rip+0xc@@
lea_rsi_[rip+0x5d@@
mov_edx_dword_ptr_[rdx+4],
06],
160],
8+4],
jne_0xa9,
run
15+2],
1e8],
and_r8d_1,
exit
je_0xffffffffffffffc9,
je_0xffffffffffffffcb,
jmp_0xa@@
jmp_0xffffffffffffff15,
jne_0xa8,
lea_rax_[rsp+0x100],
mov_r15_rbp,
mov_rsi_qword_ptr_[r13+8],
test
cmp_qword_ptr_[rbp-0x10@@
f8]_rax,
header
if
je_0xffffffffffffffcd,
lea_rdx_[rip+0x22@@
lea_rsi_[rip+0x5e@@
mov_edi_dword_ptr_[rsp+4],
add_rax_3,
bx+3],
jmp_0xffffffffffffff00,
jmp_0xffffffffffffff16,
mov_rdi_qword_ptr_[rsp+0x80],
sub_edx_esi,
test_byte_ptr_[rdx+0x428]_8,
inc_r12d,
je_0x112,
jmp_0xffffffffffffff26,
jne_0xb0,
jne_0xffffffffffffffa4,
mov_qword_ptr_[rbp-0x98]_rax,
sar_esi@@
xor_r8d@@
540,
6c0,
]_ebp,
call_0xfffffffffff67@@
call_0xfffffffffffff64@@
call_0xfffffffffffff6f@@
call_0xfffffffffffff78@@
jmp_0xfffffffffffffefe,
jne_0xb8,
mov_qword_ptr_[rsp+0xa0]_rax,
mov_rcx_qword_ptr_[rax+0x28],
ss_xmm0@@
test_r15b@@
cmove_rbx@@
cmp_al_3,
cmp_dword_ptr_[rsi+0x@@
fa0,
jne_0xffffffffffffff9c,
mov_ebx_ebp,
mov_rax_qword_ptr_[rax+0x90],
xor_eax_dword_ptr_[r@@
]_@@
add_edx_dword_ptr_[r@@
ax+0x13],
call_0xfffffffffffa8@@
call_0xfffffffffffff4a@@
cx+rax*4],
e8]_rax,
je_0x104,
je_0xfa,
jmp_0x47,
mov_edi_0x38,
mov_rax_qword_ptr_[rip+0x20f@@
xor_rdx@@
div_esi,
je_0x136,
mov_edx_0x10@@
mov_qword_ptr_[rbp-0x78]_rax,
mov_qword_ptr_[rbp-0x80]_rax,
one
ror_ax_8,
shl_rdx_0x20,
vi
4c]_eax,
code
jmp_0x48,
jmp_0xffffffffffffff11,
jmp_0xffffffffffffff1f,
jmp_0xffffffffffffff27,
jne_0xbd,
mov_r8d_0x@@
mov_rax_qword_ptr_[rip+0x207@@
mov_rax_qword_ptr_[rip+0x2a@@
or_edx_ecx,
sd@@
call_0xfffffffffffff48@@
call_qword_ptr_[rax+0x20],
cmp_byte_ptr_[r15]_0,
cmp_eax_0x64,
je_0x108,
jmp_0xfffffffffffffec@@
movsx_ecx_byte_ptr_[r@@
select
221]_4,
and_edx_3,
call_0x39@@
cmp_qword_ptr_[rsp+0x20]_0,
jg_0x5@@
call_0xfffffffffff5e@@
call_0xfffffffffffff4d@@
call_0xfffffffffffff5a@@
mov_rdi_qword_ptr_[rbp+0x28],
sub_r10d@@
5]_rax,
5c]_1,
_0xfffffff7,
call_0xfffffffffffff76@@
jmp_0xffffffffffffff08,
mov_dword_ptr_[rbp-0x9@@
mov_qword_ptr_[r14@@
sd_xmm0@@
02],
4]_r14d,
6]_rax,
9c0,
call_0xffffffffffff0c@@
jmp_0xffffffffffffff10,
lea_rsi_[rip+0x6a@@
mov_r9d_r13d,
tool
128,
54]_1,
cmove_rsi_rax,
jb_0x4@@
jmp_0xffffffffffffffe3,
mov_edx_dword_ptr_[rbx+0x10],
mov_rax_qword_ptr_[rbp-0x80@@
shr_rax_0x20,
130,
ax+rdx],
c8]_rax,
call_0xfffffffffffff70@@
je_0x11c,
jmp_0xffffffffffffff1b,
lea_rbp_[rax@@
mov_edi_0x41e@@
mov_qword_ptr_[rsp+0x118]_rax,
mov_r14_rbp,
mov_r9_qword_ptr_[rax],
mov_rax_qword_ptr_[rbp-0x3@@
pmovmskb@@
9e0,
_word_ptr_[rsp+0x@@
and_r11d@@
call_0xfffffffffffff4b@@
cmp_qword_ptr_[rax+0x10]_0,
f]@@
mov_eax_dword_ptr_[rsp+0x1@@
mov_qword_ptr_[rsp+0x18]_r10,
mov_r15_r12,
mov_rcx_qword_ptr_[rbx+0x10],
84]_0,
94]_0,
c]_edi,
call_0xfffffffffffff5c@@
cmp_r15b@@
je_0xffffffffffffffee,
mov_qword_ptr_[rsp+0x30]_rcx,
a9@@
call_0x45@@
cmp_edx_esi,
cmp_r14_rbx,
je_0x101,
je_0x116,
jmp_0xffffffffffffff0c,
lea_r12_[rax@@
mov_dword_ptr_[rsp+0xc@@
mov_qword_ptr_[rax]_r12,
mov_r12_r15,
mov_r13_rbp,
of
sub_rax_rsi,
-1]_0x2f,
],
current
je_0xffffffffffffffbe,
lea_rax_[rdx+r@@
mov_dword_ptr_[rax+0x20]_edx,
5]@@
_qword_ptr_[rsp+0x70],
add_rax_r13,
call_0xfffffffffffff57@@
je_0x114,
jne_0xffffffffffffff9d,
mov_dword_ptr_[rbp-0x8@@
mov_esi_0x406@@
mov_rax_qword_ptr_[rbp-0x228],
mov_rax_qword_ptr_[rip+0x227@@
+rax]_dl,
call_0xfffffffffffb4@@
cmp_dword_ptr_[rbp-0x14@@
e]_rax,
je_0xffffffffffffffc7,
jmp_0xffffffff@@
jmp_0xfffffffffffffef3,
jmp_0xfffffffffffffef6,
jne_0x8c,
mov_rcx_r10,
setb_al,
add_edi_1,
add_rdi_rbx,
call_0xffffffffffffa6@@
lea_eax_[rdx-0x@@
merge
mov_ebx_r14d,
mov_edx_0xa@@
mov_r14_r12,
mov_rax_qword_ptr_[rbx+0xc8],
jmp_0xffffffffffffff19,
mov_rbp_r14,
si+0x50],
test_ah_2,
test_ah_8,
5a7@@
add_rsi_8,
and_eax_0xffff@@
call_0xfffffffffffff5e@@
cmp_dword_ptr_[r13@@
jmp_0xfffffffffffffeb@@
jmp_0xffffffffffffff09,
lea_r15_[rsp+0x20],
mov_r14_qword_ptr_[rsp+8],
movzx_r13d_word_ptr_[r@@
shl_r8d@@
shr_rax_4,
556,
cmp_dword_ptr_[rbp+@@
je_0x12f,
jmp_0xffffffffffffff0d,
jmp_0xffffffffffffff22,
mov_eax_dword_ptr_[rsp+0x3c],
mov_r13_qword_ptr_[rip+0x@@
mov_rdx_qword_ptr_[rdx+0x10],
_0x74,
_0xfffffffffffffffc,
ax+rcx],
cmp_eax_0xf,
jmp_0x45,
jmp_0xfffffffffffc@@
jne_0xad,
lea_r14d@@
lea_rsi_[rip+0x50@@
mov_dword_ptr_[rdi]_eax,
mov_dword_ptr_[rsp+0x58]_eax,
mov_eax_dword_ptr_[rbx+0x14],
mov_eax_dword_ptr_[rip+0x27@@
mov_qword_ptr_[rbp-0x14@@
call_0xcd@@
call_0xfffffffffffebb@@
cmp_rsi_rcx,
mov_eax_dword_ptr_[rax+0x24],
mov_qword_ptr_[rax+0x48]_rdx,
movsd_qword_ptr_[rsp+8@@
sete_bl,
5555@@
a]_1,
call_0xfffffffffff60@@
cmp_eax_edi,
fts5
je_0x10e,
mov_r12d_ebp,
test_ch_4,
+rcx+0x1@@
add_rsp_0xf8,
and_edx_2,
bp+0xc],
call_0x7f@@
mov_r11_qword_ptr_[rsp+0x10],
movzx_r11d@@
800],
add_rdx_2,
call_0xfffffffffff57@@
call_0xfffffffffffeee@@
je_0xffffffffffffffcc,
jmp_0xffffffffffffff18,
jne_0xc5,
mov_dword_ptr_[rsp+0x10]_ecx,
mov_ecx_0x7@@
mov_esi_0x40a@@
mov_rax_qword_ptr_[rax+0x78],
push_r10,
_edi_edi,
add_eax_8,
f]_rax,
font
jne_0xc2,
lea_rcx_[rip+0x10@@
mov_ecx_dword_ptr_[rsp],
38]_2,
call_0xfffffffffffff55@@
cmovne_ebx_eax,
cmp_al_0x4@@
lea_rcx_[rax+8],
sub_rcx_1,
and_eax_0x1f,
call_0xfffffffffffa5@@
jne_0xa6,
lea_rdi_[rip+0x40@@
lea_rdi_[rsp+0x60],
mov_rax_qword_ptr_[r12+0x1@@
movzx_eax_byte_ptr_[r13],
screen
07],
36e,
_dword_ptr_[rsi],
call_0xfffffffffffff47@@
dx+0x40],
jmp_0xfffffffffffffef0,
jne_0xffffffffffffffa@@
mov_eax_dword_ptr_[rcx+0x@@
mov_edx_dword_ptr_[rbp-0x34],
sar_edx_2,
424@@
call_0x8f@@
d9@@
jne_0xd4,
mov_rdi_qword_ptr_[r15+0x10],
mov_word_ptr_[rdx+0x1@@
movzx_r12d_word_ptr_[r@@
sub_r11d@@
vmovdqu@@
8888889,
_xmm@@
cmp_rdi_rcx,
dx+0x1c],
lea_rsi_[rip+0x56@@
150,
bp+0x40],
cmp_rax_qword_ptr_[rbp-0x28],
je_0x107,
lea_rcx_[rip+0x13@@
lea_rsi_[rsp+0x60],
mov_qword_ptr_[rbp+0x10]_0,
mov_rbx_qword_ptr_[rsp+0x20],
movzx_edx_byte_ptr_[rsp+0x@@
shr_dl@@
980,
_0x2000000,
cmp_dword_ptr_[r13+@@
cmp_rcx_qword_ptr_[r@@
lea_rdx_[rip+0x24@@
mov_dword_ptr_[r14]@@
mov_r15_r9,
movsd_qword_ptr_[rbp-0x@@
4c]_8,
940,
and_eax_0x800,
e]_ax,
lea_rdx_[rip+0x34@@
mov_dword_ptr_[rbx+0x20]_eax,
mov_ebp_ebx,
mov_qword_ptr_[rbp-0x13@@
03],
840,
jne_0xc7,
lea_rax_[rip+0x2c@@
lea_rsi@@
mov_dword_ptr_[rsp+0x24]@@
mov_rcx_qword_ptr_[rsp+0x88],
or_r13d@@
sasl
0b],
290],
8]_dx,
c]_ebp,
jmp_0xffffffffffffff06,
jmp_0xffffffffffffff12,
mov_qword_ptr_[rbp-0x90]_rax,
40]_eax,
624@@
call_0xfffffffffffff75@@
lea_eax_[rcx@@
mov_esi_dword_ptr_[rsp+0x14],
mov_r13d_dword_ptr_[rsp+0x@@
mov_rdx_qword_ptr_[rsp+0x1@@
unicode
9*4],
9c]_0,
_0x100@@
cmp_rcx_rdi,
dec_ebx,
je_0xffffffffffffffc1,
jmp_0xffffffffffffffdf,
lea_rsi_[rip+0x2f@@
mov_qword_ptr_[rsp+0x58]_r9,
mov_rbp_r15,
test_qword_ptr_[r@@
0d],
8]_0x80,
add_r15d@@
call_0xfffffffffffff4e@@
compress
f9@@
lk
mov_eax_dword_ptr_[rsp+0x34],
mov_r13_r15,
movzx_eax_byte_ptr_[r15],
_r9_rax,
call_0xffffffffffff0d@@
call_0xffffffffffff1f@@
je_0x11f,
mov_qword_ptr_[rip+0x24@@
mov_rax_-0x20,
mov_rax_qword_ptr_[rip+0x20e@@
mov_rdi_qword_ptr_[r15+0x1@@
movsxd_rsi_edx,
shl_rdx_5,
268,
378,
_0x80000@@
_r8d_eax,
cmp_qword_ptr_[rbp]_0,
dd3,
imul_rdx_rdx@@
jmp_0xfffffffffffffef9,
jmp_0xffffffffffffff0a,
mov_r14_qword_ptr_[rsp+0x10],
add_r14_rax,
cmp_dl_al,
je_0xd@@
jne_0xffffffffffffff8b,
mov_rax_qword_ptr_[rdx+0x10],
shr_edx_cl,
190,
300],
_0x6c,
bx+rax*4],
lea_rcx_[rax*8],
mov_esi_0x30,
mov_qword_ptr_[rsp+0x20]_r8,
call_0xfffffffffffff5f@@
di*@@
lea_rax_[rbp+0x@@
mov_eax_r11d,
rpl
btree
call_0xda@@
cmp_byte_ptr_[rbp@@
jmp_0xffffffffffffff07,
lea_rcx_[rsp+0x40],
mov_ecx_dword_ptr_[r12+0x@@
mov_qword_ptr_[rbp-0x88]_rax,
mov_r8d_dword_ptr_[rsp+4],
mov_rax_qword_ptr_[rbx+0x80],
0e],
add_r12d_eax,
and_eax_0xffffffdf,
quote
sudo
add_rax_r14,
and_ecx_0x3f,
inc_edx,
mov_eax_dword_ptr_[rip+0x2a@@
mov_rax_qword_ptr_[rip+0x2b@@
sbb_rdx_rdx,
7c]_0,
call_0xfffffffffffff45@@
call_0xfffffffffffff58@@
inc_r12,
lea_rsi_[rip+0x6c@@
mov_r8d_dword_ptr_[rsp+0x10],
13+2],
bp+0x48],
cmp_rdi_0x6afb60,
mov_qword_ptr_[rax+0x8@@
test_r10b_r10b,
trace
14+rax],
ax-1],
b0]_rax,
cmp_qword_ptr_[rax+0xc8]_0,
jmp_0xfffffffffffffed8,
jns_0xc,
lea_rdx_[rax+0x20],
mov_dword_ptr_[rax+0x4@@
shl_ebx@@
1b0,
call_0xffffffffffffd3@@
mov_esi_0x40e@@
mov_qword_ptr_[r13+8]_rax,
mov_rax_qword_ptr_[rdi+0x158],
_0xf7,
_dword_ptr_[rip+0x3@@
bp]_0,
call_0xfffffffffff66@@
call_0xfffffffffffff66@@
fb0,
lea_esi_[rdx@@
lea_rax_[rsp+0xa0],
lea_rdi_[rip+0x36@@
lea_rsi_[rip+0x4b@@
mov_ecx_dword_ptr_[rbx+4],
mov_esi_0x2c,
mov_r13_r14,
10+@@
148,
18]_eax,
8]_0x20,
call_0xfffffffffffff4f@@
lea_rsi_[rip+0x58@@
mov_edi_0x4b@@
push
request
14+2],
230,
2b0,
_0x8000000000000000,
bswap_ecx,
call_0xfffffffffffa3@@
grecs
host
idiv_ecx,
je_0x11a,
mov_dword_ptr_[rax+0x18]_edx,
mov_eax_dword_ptr_[rbp-0x6c],
mov_qword_ptr_[rsp+0x30]_rdi,
mov_rax_qword_ptr_[rsp+0xa8],
mov_rsi_qword_ptr_[r14+0x@@
170,
38]_xmm0,
_0x7f2bb7@@
_si@@
call_0xfffffffffff6a@@
jmp_0xfffffffffffffef7,
mov_dl@@
+0x1@@
104,
158,
860,
9ba@@
jmp_r@@
mov_dword_ptr_[rbp-0xf@@
mov_dword_ptr_[rip+0x24@@
uid
call_0xd0@@
call_0xfffffffffffec0@@
a3@@
aaaaaaab,
call_0xfffffffffffeb0@@
cmp_r14d_eax,
jmp_0xfffffffffffffef2,
mov_edx_0xb,
mov_r13d_ebx,
sub_rax_r12,
82d@@
lea_eax_[rbx-1],
length
mov_dword_ptr_[rsp+0x48]_eax,
mov_esi_0x800,
mov_rax_qword_ptr_[r12+0x20],
proxy
38]_rdx,
add_rcx_8,
lea_rdi_[rsp+0x28],
mov_rax_qword_ptr_[rax+0xa0],
mov_rax_qword_ptr_[rbx+0x58],
mov_rdi_qword_ptr_[rax+0x30],
mov_rdi_qword_ptr_[rip+0x22@@
movzx_ebp_word_ptr_[r@@
cmp_eax_r13d,
or_dword_ptr_[rbp+0x@@
space
sub_rsi_rdx,
utils
270,
call_0xfffffffffff99@@
jmp_0xffffffffffffffe2,
lea_rax_[rbx+1],
mov_dword_ptr_[rsp+0x18]_ecx,
mov_qword_ptr_[rbp-0xd0]_rax,
mov_qword_ptr_[rip+0x4@@
si+rcx],
test_byte_ptr_[rdx+0x1@@
+rdx]@@
add_sil@@
call_0xfffffffffff6b@@
je_0x111,
jmp_0xffffffffffffff01,
mov_ecx_0x1a,
mov_edx_0xb@@
mov_qword_ptr_[rip+0x27@@
mov_qword_ptr_[rsp+0xf8]_rax,
mov_rbx_qword_ptr_[rsp+0x48],
mov_rdx_qword_ptr_[rax+0x40],
movsx_edx_word_ptr_[r@@
seq
test_byte_ptr_[rcx+0x428]_8,
bind
mov_byte_ptr_[r12+r@@
mov_rax_qword_ptr_[r14+0x10],
b6d@@
bp+rax*8],
call_0xfffffffffffff2d@@
call_qword_ptr_[rax+0x30],
jmp_0xffffffffffffffe4,
lea_rcx_[rdx+4],
mov_esi_0x4000,
movsx_r8d@@
valid
call_0xffffffffffff0b@@
jmp_0xfffffffffffffefc,
mov_qword_ptr_[rax+8]_rcx,
mov_r12_r14,
mov_r15_qword_ptr_[rsp+0x10],
sub_rbx_1,
test_dx_dx,
xor_eax_edx,
+rcx]_0,
6]_dx,
call_0xfffffffffffeba@@
call_0xffffffffffffb4@@
jns_0xfffffffffffffe@@
lea_rsi_[rip+0x9a@@
mov_dword_ptr_[rsp+8]_1,
mov_r9_qword_ptr_[rsp+0x28],
mov_rax_qword_ptr_[r15+0x18],
movsd_xmm4@@
or_rax_rdx,
_xmm0_xmmword_ptr_[r@@
call_0xfffffffffffff3c@@
cmp_eax_0xff,
fop
jne_0xb@@
mov_r14_qword_ptr_[rip+0x2@@
token
-5],
_xmm2_xmm1,
add_rax_r15,
call_0xfffffffffffedb@@
control
jne_0x40@@
mov_byte_ptr_[rsp+0x10@@
mov_eax_dword_ptr_[rsi+4],
13+0x30],
_r13_rax,
call_0xfffffffffffc2@@
call_0xfffffffffffff25@@
call_0xfffffffffffff44@@
call_r14,
cmp_rax_r14,
mov_qword_ptr_[rax+0x7@@
mov_qword_ptr_[rip+0x25@@
118,
fs
mov_edi_0x40d@@
208,
add_r10d@@
add_rsi_rdx,
and_ebx_1,
call_0xea@@
jmp_0xfffffffffffffee6,
jmp_0xffffffffffffff03,
jmp_0xffffffffffffff0f,
shr_ax@@
-9],
0f],
add_rdi_rbp,
addsd_xmm0_xmm1,
jmp_0xfffffffffffffed5,
mov_qword_ptr_[rax+8]_rbx,
mov_qword_ptr_[rip+0x23@@
printf
a]_ax,
attribute
lea_rdi_[rax+0x20],
mov_dword_ptr_[rsp+0x50]@@
mov_ebx_r12d,
mov_edi_0x5c@@
mov_r8d_dword_ptr_[rip+0x@@
mov_rbx_qword_ptr_[r12],
sub_rax_r14,
12+rax*8],
134],
24]_ax,
call_0xfffffffffff70@@
call_0xfffffffffff8f@@
cmp_rcx_rsi,
finish
jmp_0xfffffffffffffedc,
lea_rdx_[rip+0xf@@
lea_rsi_[rip+0x7d@@
mov_byte_ptr_[r15@@
mov_dword_ptr_[rsp+0x10]_edx,
mov_edi_dword_ptr_[rsp+8],
mov_rax_qword_ptr_[rip+0x226@@
movsxd_rax_r13d,
test_byte_ptr_[rcx+0x1@@
2b8],
_0xfb,
movsxd_rdx_dword_ptr_[rip+0x2@@
setne_bl,
12-0x@@
58]@@
add_eax_esi,
call_0xfffffffffffff4c@@
cmp_dword_ptr_[r12+@@
cmp_qword_ptr_[rax+@@
first
jmp_0xfffffffffffffedf,
lea_rax_[rip+0xd@@
mov_esi_0x40c@@
mov_rsi_qword_ptr_[rdx+8],
raw
test_byte_ptr_[rsp+0x1@@
7]_1,
lea_rsi_[rip+0x6b@@
mov_ebx_dword_ptr_[rip+0x@@
u@@
mov_dword_ptr_[rsp+0x40]_eax,
mov_edi_0x412@@
mov_rdx_qword_ptr_[rbp+0x20],
mov_rdx_qword_ptr_[rcx+0x@@
sub_eax_edi,
ucomisd_xmm0_xmm1,
930,
call_0xfffffffffffb5@@
call_0xfffffffffffff42@@
call_qword_ptr_[rbx+0x98],
jmp_0xfffffffffffffeee,
mov_ebp_0x16,
mov_r11d_1,
shl_r15@@
shr_eax_3,
_0xffff87@@
lea_rbx@@
mov_edi_0x84,
mov_rax_qword_ptr_[rbp-0x108],
mov_rdi_qword_ptr_[r14+0x30],
+7],
column
lea_rdx_[rsp+0x60],
mov_edx_dword_ptr_[rax+0x20],
shr_r8@@
8*4],
call_0xfffffffffffe9c@@
call_0xffffffffffff11@@
jmp_0xfffffffffffffec9,
mov_dword_ptr_[rsp]_ecx,
mov_edx_0xf,
mov_rax_qword_ptr_[rip+0x204@@
movabs_rax_0x7@@
or_dword_ptr_[rsp+0x@@
e3@@
ed0,
mov_dword_ptr_[rsp+0x10]_1,
mov_esi_0x11,
mov_esi_9,
mov_rax_qword_ptr_[rbp-0x148],
mov_rdx_qword_ptr_[rbp-0xb8],
mov_rsi_qword_ptr_[rsp+0x68],
sete_r12b,
shl_r14@@
268],
call_0xfffffffffffff3d@@
call_0xfffffffffffff50@@
cvtsi2sd_xmm0_rdx,
jne_0xae,
lea_rdx_[rsp+0x1@@
lea_rsi_[rip+0x66@@
mov_qword_ptr_[rsp]_rbp,
movsx_rcx@@
1c]_eax,
288,
388,
_xmm1_xmm1,
call_0xfffffffffffedc@@
call_0xfffffffffffff33@@
call_0xfffffffffffff56@@
cmp_byte_ptr_[r12+@@
mov_eax_dword_ptr_[rip+0x218@@
mov_edx_0x28,
mov_qword_ptr_[rsp+0xd0]_0,
sub_r15d@@
call_0x68@@
cmp_r12d_edx,
je_0x124,
lea_rcx_[rbx+0x@@
lea_rdx_[rip+0x28@@
lea_rsi_[rip+0x48@@
mov_rax_qword_ptr_[r15+0x20],
movups_xmmword_ptr_[rax+0x1@@
cmp_esi_ecx,
jmp_0xffffffffffffffe1,
mov_eax_dword_ptr_[rbp-0x50],
mov_edx_0x16,
mov_r11_qword_ptr_[rsp+8],
mov_r9_qword_ptr_[rbp-0x@@
slap
6e0,
add_rbx_2,
call_0xba@@
call_0xfffffffffffb2@@
call_0xfffffffffffff35@@
cmp_edi_eax,
jmp_0xffffffffffffff02,
lea_edx_[rdx@@
lea_r8_[rip+0x14@@
mov_esi_0x40d@@
138,
1d0,
1d8,
50f,
add_qword_ptr_[rbx+0x@@
add_qword_ptr_[rsp+0x@@
call_0xfffffffffffe9a@@
fld_xword_ptr_[r@@
jmp_0xfffffffffffffed6,
lea_rsi_[rip+0x44@@
mov_eax_dword_ptr_[rip+0x26@@
pmovmskb_edx_xmm1,
20]_2,
mov_eax_dword_ptr_[rip+0x210@@
mov_rsi_qword_ptr_[r14+0x18],
pxor_xmm2_xmm2,
12+0x1c],
2a8],
ax+0x428],
call_0x43@@
call_0xfffffffffffff3f@@
jmp_0xfffffffffffffef4,
lea_ecx_[rdx-1],
lea_rdi_[rip+0x3e@@
mov_eax_0xa,
mov_esi_0x2d,
mov_qword_ptr_[rsp+0x38]_rdx,
mov_rcx_qword_ptr_[rsp+0x40],
mov_rdx_qword_ptr_[rbx+0x30],
movzx_eax_word_ptr_[rax+0x@@
region
178,
634@@
cmp_qword_ptr_[rbp-0x58]_0,
mov_edx_dword_ptr_[r15],
mov_qword_ptr_[rdi]_rdx,
mov_rax_qword_ptr_[rip+0x206@@
movzx_eax_byte_ptr_[rax+1],
shr_eax_0x10,
a]_rax,
bx+rdx],
call_0xfffffffffffff74@@
jmp_0xfffffffffffffee5,
mov_eax_dword_ptr_[rbx+0x38],
mov_esi_dword_ptr_[rsp+0x1c],
mov_qword_ptr_[rsp+0x10]_rbx,
mov_r15_qword_ptr_[r15],
mov_r8d_dword_ptr_[rbx+0x@@
sub_rdx_qword_ptr_[r@@
unmarshal
8d0,
9b0,
cmp_qword_ptr_[rsp+0x30]_0,
inc_qword_ptr_[r@@
jne_0x8@@
lea_rax_[rip+0xb@@
mov_dword_ptr_[rbp-0x38]_eax,
mov_qword_ptr_[rsp+0x28]_r8,
mov_rbx_qword_ptr_[rsp+0x1@@
188,
9e8,
add_r@@
jmp_0xfffffffffffffee9,
jne_0xfffffffffffffdd@@
mov_qword_ptr_[rip+0x210@@
mov_r10_qword_ptr_[rip+0x2@@
mov_rsi_qword_ptr_[r14+8],
shr_rdi@@
test_byte_ptr_[r13+0x1@@
add_edx_8,
mov_byte_ptr_[r14+r@@
cmove_ebp_eax,
mov_dword_ptr_[rsp-0x@@
270],
288],
5b0,
call_0xffffffffffff2f@@
cmp_rbx_r15,
lea_rax_[rdx+1],
mov_edi_0x49@@
mov_r9d_2,
8]_r11,
_zmmword_ptr_[r@@
bx+0x110],
getopt
mov_ecx_0xf,
mov_edi_0x5b@@
mov_r12_qword_ptr_[rsp+8],
mov_rbx_qword_ptr_[rsp+0x58],
release
add_dword_ptr_[rbp+0x@@
call_0xfffffffffffff30@@
cmp_byte_ptr_[r14]_0,
jl_0x1@@
13+0x14],
228,
660],
cvttsd2si_eax_xmm0,
mov_esi_dword_ptr_[rsp+0x10],
350],
add_r12_0x10,
call_0xfffffffffff7e@@
call_0xfffffffffffff2b@@
cc0],
cmovne_rcx_rax,
lea_edx_[rax+0x@@
mov_byte_ptr_[rdx]@@
mov_edx_0xe,
mov_qword_ptr_[rsp+0x10]_r11,
+rdx*2@@
1d0],
jmp_0x4b,
jmp_0xffffffffffffff04,
mov_qword_ptr_[rbx+0x10@@
vg
w_word_ptr_[r@@
1f8,
701,
call_0xfffffffffffff27@@
exec
lea_rdi_[r12+0x@@
lea_rsi_[rip+0x7a@@
mov_eax_dword_ptr_[rip+0x4@@
mov_qword_ptr_[rsp+0xb8]_0,
0]_r12d,
1e0],
call_0x48@@
di+0x10@@
dx+0xc],
jle_0xe,
jmp_0xfffffffffffffefa,
jmp_0xfffffffffffffeff,
jmp_0xffffffffffffff05,
lea_rax_[rip+0x10@@
mov_dword_ptr_[rip+0x210@@
mov_r11_rax,
mov_r8d_3,
mov_rsi_qword_ptr_[rsp+0x78],
call_0xfffffffffffff40@@
class
jmp_0xfffffffffffffebd,
lea_ecx_[rax-1],
mov_r13d_ebp,
movaps_xmmword_ptr_[rsp+0x70@@
pmovmskb_edx_xmm0,
sub_rax_8,
58]_rdx,
call_0xfffffffffffff46@@
call_r15,
cvtsi2sd_xmm1_rax,
jmp_0xfffffffffffffeba,
lea_rsi_[rip+0x5b@@
mov_esi_0x404@@
movsxd_r12_r12d,
sbb_ecx_ecx,
220]@@
_0x57,
call_0xfffffffffff93@@
jmp_0xfffffffffffffed7,
mov_ecx_0xd,
mov_edx_0xc@@
split
13*4],
705,
add_ecx_eax,
mov_rsi_qword_ptr_[r12+0x18],
or_eax_4,
sub_eax_esi,
1b0],
jmp_0xfffffffffffffefb,
mov_r12d_0x16,
mov_rcx_qword_ptr_[r12],
mov_rdx_qword_ptr_[rip+0x22@@
90]_rdx,
add_cl_al,
audit
call_0xfffffffffff77@@
call_0xfffffffffffe9d@@
call_0xfffffffffffff2c@@
lea_rsi_[rip+0x6d@@
lea_rsi_[rip+0x7c@@
skip
xor_ebx@@
005,
84]_eax,
9f0,
mov_dword_ptr_[rcx+0x1@@
prefix
shr_edx_0x1f,
test_edi@@
11]_0,
3a8,
5d0,
mov_dword_ptr_[rsp+0x34]_0,
mov_rcx_qword_ptr_[r12+0x@@
property
test_bl_1,
320],
bx+6],
cmp_rcx_-1,
je_0xfffffffffffffdd@@
lea_rdi_[rax+0x10],
mov_r8d_dword_ptr_[rbp-0x@@
440,
4a0,
cmp_r15d_eax,
148],
8]_r15d,
backup
bt_rax@@
cmp_rdi_qword_ptr_[rsp+8],
f]_1,
inc_r13d,
mov_edx_dword_ptr_[rsp+0x28],
or_dword_ptr_[rbx+0x1@@
2a8,
cmp_r8_rax,
e9@@
mov_byte_ptr_[rbx]_al,
15+0x38],
20]_ecx,
946,
jmp_0x61,
mov_ecx_dword_ptr_[rdx+4],
mov_r15_qword_ptr_[rbx],
mov_rdx_qword_ptr_[rcx],
movzx_eax_byte_ptr_[rdx+rax],
0]_2,
6c]_1,
has
jmp_0xfffffffffffffede,
jne_0xc@@
lea_rcx_[rip+0x14@@
lea_rsi_[rsp+0x70],
mov_eax_0x20,
mov_rcx_qword_ptr_[rsp+0x50],
stdout
add_r8d_1,
add_rax_0xc,
call_0xfffffffffffff32@@
lea_r13_[rax@@
lea_rax_[rip+0x26@@
mov_edx_0x11,
movsd_xmm2_qword_ptr_[rip+0x@@
push_0x4@@
162,
_eax_ecx,
e]_1,
jmp_0xfffffffffffffef8,
mov_eax_dword_ptr_[rax+0x38],
mov_qword_ptr_[rsp+0x20]_r9,
pv
sub_r10@@
98]_1,
990,
jmp_0xfffffffffffffec8,
lea_rax_[rsp+0xb0],
mov_edx_dword_ptr_[rsp+0x2c],
mov_esi_0x408@@
mov_rax_qword_ptr_[rbx+0x60],
1b8,
]_r8,
call_0x9f@@
di+rax*8],
mov_dword_ptr_[rsp+0x4c]_eax,
xor_edi@@
9d0,
call_0xfffffffffffff3a@@
mov_edx_dword_ptr_[rbx+0x1@@
mov_rax_qword_ptr_[rsp+0xb8],
validate
582,
mov_ecx_dword_ptr_[r15+0x28],
mov_ecx_r10d,
mov_esi_0x405@@
mov_rax_qword_ptr_[rbp-0x8@@
mov_rax_qword_ptr_[rsp+0xc8],
mov_rsi_qword_ptr_[rsp+0x70],
movabs_rdx_0x4@@
13+0x40],
jmp_0xfffffffffffffee1,
mov_dword_ptr_[rbp-0x4b0@@
mov_r8d_dword_ptr_[rsp+0x18],
mov_rdx_qword_ptr_[rsp+0x78],
si+rcx@@
1b8],
add_r11d@@
call_0xfffffffffffff3b@@
jb_0x5@@
jmp_0xfffffffffffffeed,
lea_r8_[rip+0x13@@
mov_rdx_qword_ptr_[r12+8],
or_edx_2,
xor_ecx_dword_ptr_[r@@
0002,
0]_0x6@@
12*@@
60]_rdx,
filename
locale
mov_dword_ptr_[rbp-0x12@@
mov_eax_dword_ptr_[r12+8],
3d0,
add_rbx_0x20,
call_0xfffffffffffff38@@
comisd@@
manager
mov_qword_ptr_[rbx-0x@@
mov_qword_ptr_[rsp+0x50]_rdx,
mov_qword_ptr_[rsp+8]_r11,
mov_rdx_r11,
mov_rsi_qword_ptr_[rcx],
shr_al_5,
3e8,
80]_1,
call_0xfffffffffffe9e@@
lea_rdi_[rip+0x2f@@
19b@@
add_qword_ptr_[rbp-0x58]_1,
call_0xfffffffffffff1f@@
call_0xfffffffffffff26@@
jae_0xfffffffffffffe@@
mov_dword_ptr_[rbx+0x2@@
mov_eax_dword_ptr_[rip+0x215@@
mov_eax_dword_ptr_[rip+0x28@@
mov_ecx_dword_ptr_[r13+0x@@
mov_rcx_qword_ptr_[rsi+0x18],
mov_rsi_qword_ptr_[rax+0x1@@
subsd_xmm0_xmm1,
test_al_0x80,
70b,
_0x1000000,
call_0xfffffffffffe9b@@
lea_r8_[rip+0x11@@
lea_rsi_[rip+0x54@@
skeleton
call_0xfffffffffffff24@@
cmp_rdi_r15,
last
mov_dword_ptr_[rip+0x213@@
mov_r12_qword_ptr_[r12],
mov_rax_qword_ptr_[rax+rdx*8],
lea_rax_[rip+0x2d@@
mov_r11_qword_ptr_[rsp+0x18],
movdqu_xmm3_xmmword_ptr_[r@@
or_eax_0x20,
call_0x85@@
jae_0x10,
jmp_0xfffffffffffffee7,
lea_rdx_[rax-8],
mov_eax_dword_ptr_[r13+8],
mov_r8_qword_ptr_[rip+0x20@@
mov_word_ptr_[rip+0x2@@
movabs_rax_0x6@@
movabs_rax_0x7fffffffffffffff,
or_al@@
-6],
106,
4b0@@
548,
_0x7c,
ax+0x58],
lea_rdi_[rax+0x18],
mov_r8d_8,
20]_rsi,
adns
call_0xffffffffffffe9@@
call_0xfffffffffffff1d@@
call_0xfffffffffffff2f@@
cmp_byte_ptr_[rsi+@@
lea_r9_[rip-0x@@
mov_r9d_dword_ptr_[rip+0x2@@
thread
15+0x40],
168],
928,
alias
call_0xffffffffffffeeb@@
dx+2],
mov_esi_0xff,
mov_r12d_dword_ptr_[rip+0x2@@
sp]_xmm0,
call_0xdd@@
call_0xfffffffffff84@@
ead,
f70,
inc_dword_ptr_[rip+0x@@
mov_eax_dword_ptr_[rsp+0x40],
mov_edx_r10d,
mov_rax_qword_ptr_[rsp+0xa0],
r@@
tdb
40]_xmm0,
5c3,
addsd_xmm0_xmm0,
and_dword_ptr_[rbx+0x@@
cmp_al_0x3d,
inc_r15,
lea_r10_[rsp+0x@@
lea_rdx_[rbp+0x@@
mov_esi_0x40f@@
mov_rdx_qword_ptr_[r12+0x10],
13+0xc],
1f8],
328,
cmp_dword_ptr_[rbp-0x10@@
randr
168,
370],
begin
call_0xfffffffffff95@@
call_0xfffffffffffeaa@@
jmp_0xfffffffffffffee8,
jmp_0xfffffffffffffeec,
jmp_0xfffffffffffffef1,
mov_qword_ptr_[rdi-0x@@
*4+4],
add_eax_4,
call_0xfffffffffffb3@@
fb8,
lea_r8_[rip+0x9@@
mov_ecx_0x14,
mov_rdi_qword_ptr_[r13+0x1@@
1a8,
bx+0x16],
call_0x65@@
fstp@@
mov_esi_r9d,
sete_bpl,
shell
13+0x38],
570,
and_edx_0xf,
imul_rdx@@
jmp_0xfffffffffffffeef,
lea_rsi_[rip+0x46@@
mov_qword_ptr_[r15+@@
movsxd_rax_r14d,
test_r11b_r11b,
width
188],
23f,
2b0],
998,
call_0xfffffffffffff2e@@
lea_rsi_[rsp+0x38],
mov_edi_dword_ptr_[rsp+0x14],
mov_rax_qword_ptr_[r14+0x1@@
mov_rbx_qword_ptr_[rbp-8],
pop_r11,
psubb_xmm1_xmm0,
q@@
script
119,
_qword_ptr_fs:[r@@
ec0,
ffe,
lea_rcx_[rcx@@
mov_rax_qword_ptr_[r14+0x20],
si+rdx@@
+6],
4]_8,
_0xffffffdf,
_xmm0_xmm4,
mov_r8d_0x5@@
mov_rax_qword_ptr_[rbp-0x120],
mov_rbp_qword_ptr_[rsp+0x10],
movzx_eax_byte_ptr_[r14],
+rax+4],
250,
3f0,
call_0xfffffffffffa2@@
ec]_0,
item
lea_rax_[rip+0x27@@
300,
948,
9b8,
and_eax_0xfffffffb,
generic
mov_r8d_dword_ptr_[rsp+0x1c],
3d8,
_0x62,
call_0xfffffffffffff29@@
cmp_ecx_-1,
cmp_rax_qword_ptr_[rbp-0x80],
mov_rcx_qword_ptr_[rcx+0x70],
480,
call_0xbd@@
call_0xdb@@
jmp_0xfffffffffffffee0,
mov_dword_ptr_[rsp+0x3c]_0,
mov_eax_0x3@@
1d8],
2d8],
460,
b9@@
call_0xffffffffffffeca@@
cmp_r13d_2,
mov_rdi_qword_ptr_[r13+0x30],
124,
2d0],
call_0xfffffffffffe8a@@
lea_rdx_[rip+0x27@@
mov_dword_ptr_[r12]_1,
mov_dword_ptr_[rsp+0x48]_0,
mov_esi_0x426@@
mov_r10d_dword_ptr_[rsp+8],
mov_rax_qword_ptr_[rbp-0x418],
1e8,
fc8,
mov_rax_qword_ptr_[rip+0x29@@
lea_r10@@
102,
330,
8]_0xc,
call_0xffffffffffffecb@@
di-@@
mov_qword_ptr_[rsp+0x18]_rbx,
variable
-0x20],
352,
588,
add_rax_0x30,
cmp_eax_-2,
cmp_rdi_r12,
lea_rdx_[rcx@@
mov_eax_dword_ptr_[rsp+0x48],
mov_ecx_0xe,
mov_edi_0x410@@
13+rax*8],
368,
and_rdx_0xfffffffffffffffa,
cmp_byte_ptr_[r15+@@
d]_1,
ej
mov_eax_dword_ptr_[rbp-0x48],
mov_edi_0x14,
mov_rax_qword_ptr_[rbp-0x248],
or_edx_1,
151,
198,
lea_rsi_[rip+0x7b@@
mov_qword_ptr_[rax]_r13,
mov_r15_qword_ptr_[rsp+0x18],
248,
8c]_0,
908,
970,
and_edx_7,
call_0xffffffffffffef7@@
mov_esi_0x64,
sub_eax_3,
xorpd@@
call_0xfffffffffffff3e@@
cmovne_rdx_rax,
interface
pg
10b,
3]_eax,
call_0xfffffffffffff20@@
cmp_dword_ptr_[rsp@@
e2@@
lea_rdx_[rdi+0x10],
lea_rsi_[r12+0x@@
lea_rsi_[rip+0x4e@@
lea_rsi_[rip+0x80@@
_rcx_rdx,
_xmm5,
out
10+1],
101,
3b8,
a0]_rax,
cmp_eax_r14d,
fe8,
gid
image
intel
14d,
340],
9d8,
_edx_edx,
add_qword_ptr_[rsp+0x1@@
cmp_ecx_3,
movzx_esi_al,
258,
988,
_0xffffffffffffffff,
meta
mov_dword_ptr_[rsp+0x18]_1,
neg_rdx,
003,
15+rax],
480],
mov_dword_ptr_[rsp+0x18]_r8d,
movzx_edx_byte_ptr_[rax+0x@@
reference
xmalloc
3c8,
4]_0x40,
8e0,
929,
_0xfc,
bx+0x24],
lea_rdx_[rip+0x2d@@
lea_rsi_[rip+0x3f@@
mov_byte_ptr_[r12+@@
mov_rsi_qword_ptr_[rax+0x28],
109,
12a,
238,
577,
bx+0x98],
call_0xfffffffffffff17@@
cmp_byte_ptr_[r13+@@
jmp_0xfffffffffffffeb7,
lea_rdx_[rip+0x1e@@
lea_rsi_[rip+0x23@@
mov_dword_ptr_[rsp+0x44]_eax,
mov_ebx_2,
movsxd_rax_dword_ptr_[rip+0x20@@
170],
958,
jmp_0xfffffffffffffeeb,
long
si+rax*8],
stream
test_byte_ptr_[rax+0x4@@
xor_esi@@
10]_xmm0,
88]_1,
ff8,
imul_rdi@@
jmp_0xb@@
jmp_0xfffffffffffffecc,
mov_r8d_0x6@@
rename
sub_rax_r13,
1bd,
210,
3c0],
9+0x10],
ea8,
fd8,
lea_r11d_[r@@
lea_rdx_[rip+0x30@@
mov_eax_dword_ptr_[rsp+0x80],
lea_eax@@
lea_rdx_[rip+0x3a@@
malloc
mark
mov_dword_ptr_[rip+0x23@@
14+0x14],
149,
48]@@
9c8,
_xmm1_xmm3,
dbc
mov_dword_ptr_[rax+0x3@@
mov_rdi_qword_ptr_[rdx+8],
sub_r13d_1,
14*4],
160@@
2e0],
_ebx_ebx,
action
lea_rdi_[rsp+0x70],
mov_ecx_dword_ptr_[rsp+0x28],
mov_edx_dword_ptr_[rsp+0x24],
2d0,
_qword_ptr_[rsp+0x80],
add_r15_0x10,
and_eax_0x200,
lea_rdi_[rip+0x4c@@
lea_rsi_[rip+0x25@@
mov_edx_0x12,
mov_esi_dword_ptr_[rsp+0x18],
mov_word_ptr_[rax]@@
167,
3b0,
8c0,
cmp_al_4,
cmp_edx_0x2f,
mov_dword_ptr_[rsp+0x40]_0,
mov_ebx_r13d,
mov_edi_dword_ptr_[rsp+0x1c],
125,
1f0],
call_0x42@@
call_0xfffffffffff7f@@
lea_rdx_[rip+0x2a@@
mov_ebx_r15d,
15+0x14],
2c8,
5e8,
cmove_rsi@@
cmp_rdi_r13,
mov_ebp_r13d,
movdqa_xmm1_xmmword_ptr_[r@@
pop
15*4],
4c8,
_0x80808080,
bp+0x24],
call_0xec@@
test_r9b@@
3f8,
640,
_0x84,
bx+0x158],
e2fsck
mov_eax_dword_ptr_[rbp-0x94],
mov_r14_qword_ptr_[rsp+0x18],
3c8],
mov_ebp_r12d,
13b,
950,
add_rdi_rdx,
mov_ecx_r11d,
mov_rdi_qword_ptr_[r13+0x10],
movapd_xmm0_xmm1,
values
11c,
178],
40]_rdx,
jmp_0xfffffffffffffecf,
jne_0xd@@
mov_r8d_0x2@@
348,
44]_eax,
add_dword_ptr_[rip+0x@@
lea_r15d@@
-1]_0xa,
4]_3,
9a8,
c0d,
etc
mov_dword_ptr_[rsp+0x58]_0,
mov_qword_ptr_[r14+@@
133,
608,
_0x8080,
add_rax_r8,
ax-8],
box
mov_r10d_dword_ptr_[rsp+0xc],
mov_r9d_dword_ptr_[rsp+0x18],
144,
16d,
29]_1,
957,
add_al@@
at
13d,
28]_rsi,
_0x800000,
add_ecx_dword_ptr_[r@@
mov_qword_ptr_[rsp+0x40]_rcx,
mov_r14d_ebx,
mov_r9_qword_ptr_[rsp+0x30],
10+8],
jmp_0xfffffffffffa@@
jne_0x4a@@
60]_xmm0,
cvtsi2@@
cvtss2@@
mov_edi_dword_ptr_[rsp+0x10],
mov_rdi_qword_ptr_[r15+0x30],
add_rax_0x1@@
call_0xfffffffffffff2a@@
cmp_esi_-1,
cmp_rax_r15,
lea_rsi_[rip+0x70@@
mov_ecx_dword_ptr_[r14+0x@@
mov_edx_0x42@@
mov_qword_ptr_[rdx+0x18]_rcx,
mov_r15_qword_ptr_[rsp+0x20],
mov_rax_qword_ptr_[rbp-0x130],
mov_rax_qword_ptr_[rip+0x2c@@
mov_word_ptr_[rdi@@
8d8,
cmp_ax_1,
cmp_r13d_-1,
d0]_rax,
mov_edx_dword_ptr_[rsp+0x20],
movsx_rax_al,
movzx_eax_byte_ptr_[rax+0x4@@
+rax*4-0x@@
978,
cmp_ecx_esi,
mov_esi_0x422@@
mov_rdi_qword_ptr_[rsp+0x90],
sub_rsi_rcx,
test_byte_ptr_[rax+0x134]_1,
94]_eax,
attr
cmp_rdi_r14,
mov_byte_ptr_[r12+0x@@
5b8,
_dh@@
dd0,
lea_rdx_[rax+r@@
mov_qword_ptr_[rsp+0xe0]_0,
mov_r15d_ebx,
system
134,
address
bb0,
c0]_rax,
call_0xfffffffffff6e@@
hook
jmp_0xfffffffffffffed9,
n@@
sar_rsi@@
10e,
48]_rdx,
ffd,
mov_edi_0x5a@@
resolve
6c8,
cmp_r14d_2,
mov_qword_ptr_[rsp+0xb0]_rax,
555,
9c]_eax,
_qword_ptr_[rsp+0x78],
cmovne_rdx@@
pcmpeqb_xmm@@
truncate
5a8,
_xmmword_ptr_[rsi+0x@@
call_0xfffffffffff58@@
cvtsi2sd_xmm0_eax,
mov_byte_ptr_[rdi]_al,
si_rsi,
sub_rdi_rdx,
2020@@
54]@@
968,
bx-0x10],
call_0xe0@@
cx+0x30],
lea_rdi_[rip+0x4a@@
pcmpeqb_xmm1_xmm2,
sub_edx_r9d,
cmp_dword_ptr_[rdx+@@
iter
lea_esi_[rax-1],
movsx_eax_word_ptr_[rbp-0x@@
setne_dil,
1]_sil,
358,
9+4],
mov_esi_0x5c@@
sar_edx_0x1f,
stack
14+0x40],
550,
jb_0x3@@
lea_rdx_[rax+rax*4],
mov_rdi_qword_ptr_[r14+0x1@@
movsxd@@
15]_1,
_r11b@@
lea_rax_[rip+0x13@@
mov_ecx_dword_ptr_[rsp+0x20],
mov_edi_dword_ptr_[rax+0x@@
mov_edx_0xd@@
mov_r15_qword_ptr_[rsp+8],
pool
11b,
4e0,
cmp_al_5,
level
90]_1,
dereference
lea_rsi_[rsp+0x80],
movzx_r14d_word_ptr_[r@@
socket
xor_al@@
5d8,
6cf,
add_rsi_rdi,
call_0xac@@
ffffffffffff@@
mov_eax_dword_ptr_[rsp+0x58],
18d,
auth
bpl@@
call_0xfd@@
call_0xfffffffffff6c@@
mov_qword_ptr_[rsp+0x38@@
move
15*@@
380],
4]_r15d,
and_r8@@
ec8,
jmp_0xfffffffffffffeb9,
mov_eax_dword_ptr_[rsp+0x70],
sp+rax*8+0x@@
sub_edx_0xffff,
2+1@@
bp+0x98],
getdef
mov_rax_qword_ptr_[rbp+0x80],
mov_rdi_qword_ptr_[rsp+0x78],
render
284,
2a]_0,
60]_eax,
906,
jmp_0xfffffffffffffea9,
mov_dword_ptr_[rsp+0x10]_r9d,
mov_qword_ptr_[rbp-0x15@@
sp+0x110],
sp]_0,
wait
37d,
706,
cmp_eax_dword_ptr_[rsp+0x@@
mov_ecx_dword_ptr_[rbp+0x28],
pam
938,
add_eax_ebx,
cmp_r13d_3,
mov_dword_ptr_[rsp+0x28]_ecx,
_0x7d,
_0xff00,
locate
114,
154,
lea_rsi_[rip+0x8b@@
lease
mov_eax_dword_ptr_[rip+0x212@@
movzx_edx_word_ptr_[rsp+0x@@
2e8,
lea_esi@@
movzx_r10d_word_ptr_[r@@
password
sbb_esi_esi,
spec
7]@@
1c]_0,
5c8,
820],
fffffff,
gen
jn@@
mov_eax_dword_ptr_[rsp+0x90],
mov_r9d_r15d,
mov_rdx_qword_ptr_[r14+0x18],
ps@@
708,
_rax_xmm0,
mov_qword_ptr_[rip+0x21d@@
or_rdx@@
protocol
14*@@
870@@
add_r14_0x10,
lea_rsp_[rbp-0x@@
mov_r14d_r13d,
1b1,
call_r10,
ffffffe,
mov_eax_dword_ptr_[r15+8],
mov_rax_qword_ptr_[rbp-0x5@@
movapd_xmm1_xmm0,
_dword_ptr_fs:[0x@@
fill
mov_dword_ptr_[rsp+0x3c]@@
progress
timeout
12c,
done
lea_rsi_[rip+0x4f@@
mov_eax_dword_ptr_[rsp+0x4c],
mov_r12d_2,
movdqa_xmm1_xmmword_ptr_[rsi+rcx],
14+0x38],
308],
450],
epj
mov_dword_ptr_[rax+r@@
mov_qword_ptr_[rsp+0x18]_r11,
movdqa_xmm@@
sub_eax_ebx,
13c,
70d,
_dword_ptr_[rip+0x20@@
call_0xfffffffffff6d@@
lea_r11_[rsp+0x@@
lea_rax_[rip+0x14@@
mov_eax_dword_ptr_[rbp-0x88],
142,
544,
bamc
mov_dword_ptr_[rdx+8]_eax,
+rdx*8+0x@@
mov_dword_ptr_[rax+0x30]_edx,
mov_qword_ptr_[rsp+@@
movsxd_rax_r15d,
sub_rdx_rdi,
4b0],
925,
999,
avc
mov_eax_dword_ptr_[rsp+0x68],
mov_r12d_r13d,
single
0]_edi,
bb8,
bo
common
jmp_0xfffffffffffff0@@
868,
lea_rcx_[rip+0x9@@
mov_dword_ptr_[rsp+0x18]_r9d,
op
sp+0x130],
50]_xmm0,
cc0,
cmp_byte_ptr_[rdx+0x1@@
cmp_qword_ptr_[r13+0x1@@
lea_rcx_[rip+0x15@@
mov_edx_0x43@@
or_qword_ptr_[rsp+0x@@
var
commit
e0]_rax,
jmp_0xfffffffffffffebf,
mov_dword_ptr_[rsp+0x4c]@@
mov_r8_qword_ptr_[rsp+0x30],
partition
punpck@@
006,
4a0],
5f8,
9f8,
add_rdx_rbx,
ctx
json
lea_rdx_[rip+0x2b@@
lea_rsi_[rax+0x10],
mov_rbp_qword_ptr_[rsp+0x18],
13c],
349,
cmp_dword_ptr_[r14+0x1@@
mov_dword_ptr_[rsp+0x54]_eax,
mov_edx_0xe@@
mov_rax_r10,
sub_edx_2,
601,
606,
607,
die
mov_eax_dword_ptr_[rip+0x213@@
mov_esi_dword_ptr_[rax+8],
shr_eax_0x18,
_st(1),
and_eax_0x400,
lea_rdx_[rip+0x26@@
mov_r9d_0x5@@
movdqa@@
movdqa_xmmword_ptr_[r@@
sbb_rcx_rcx,
1eb851f,
9ed,
call_0xfffffffffff54@@
f0]_rax,
js_0xfffffffffffffe@@
mov_qword_ptr_[rsp+0x28]_r9,
pi
di+rcx],
edit
mov_eax_dword_ptr_[rsp+0x44],
14+0xc],
call_qword_ptr_[rbp+0x98],
base
bx+5],
fatal
lea_rax_[rsp+0xc0],
999],
mov_r13_qword_ptr_[rsp+8],
mov_rax_qword_ptr_[rsp+0xc0],
tag
1a3,
]_zmm@@
cmp_byte_ptr_[r14+@@
mov_rax_qword_ptr_[rbp-0x6@@
34c,
cmp_word_ptr_[rsp+0x@@
jmp_0xfffffffffffb@@
lea_rdx_[rip+0x2c@@
mov_dword_ptr_[rbp-0x14]@@
ntfs
pminub@@
sub_rax_2,
9dd,
cmp_qword_ptr_[rsp+0x40]_0,
lea_rdx_[rsp+0x70],
mov_eax_dword_ptr_[r15+0x1@@
compute
lea_rdx_[rip+0x3b@@
mov_byte_ptr_[r15+@@
mov_eax_dword_ptr_[rip+0x219@@
mov_r12_qword_ptr_[rsp+0x18],
mov_r15d_ebp,
not_esi,
call_0xfffffffffff89@@
mov_qword_ptr_[rsp+0xc8]_0,
_0xf8,
add_rcx_0x20,
lea_rsi_[rip+0x5f@@
mov_eax_dword_ptr_[rsp+0x88],
mov_rcx_qword_ptr_[r13],
mov_rdx_qword_ptr_[r15+0x10],
578,
6cd,
mov_eax_dword_ptr_[rsp+0x50],
replace
93d,
add_r13_0x10,
atexit
mov_r15d_r14d,
lea_rdi_[rsp+0x90],
local
mov_rax_qword_ptr_[rbp-0x110],
and_al_0x7f,
51]_0,
bpl,
lea_rdx_[rsp+0x90],
realloc
550],
cmp_qword_ptr_[rsp+0x50]_0,
enable
mov_rax_qword_ptr_[rbp-0x1b8],
-8]_rdx,
lea_rdi_[rsp+0x80],
lea_rdx_[rsp+0x80],
mov_ecx_dword_ptr_[rsp+0x24],
flag
lea_rax_[rip+0x18@@
mov_rdx_qword_ptr_[r13+0x10],
convert
or_rcx_0xffffffffffffffff,
sh
mov_r8d_dword_ptr_[rbp+0x@@
mov_r9_qword_ptr_[rsp+0x38],
mov_r9d_dword_ptr_[rsp+0x10],
lea_rsi_[rip+0x77@@
pmovmskb_edx@@
profile
3f0],
cx+0x40],
lea_rsi_[rip+0x35@@
mov_dword_ptr_[rsp+0x50]_eax,
mov_edx_0xd,
mov_rax_qword_ptr_[rbp-0x1c0],
not_rcx,
p
15-0x@@
complete
lea_rdi_[rax+4],
mov_r13_qword_ptr_[rsp+0x10],
mov_rsi_qword_ptr_[r13+0x18],
movzx_ecx_byte_ptr_[rsp+0x@@
0]_r10,
cmp_dl_0xa,
extract
jae_0xffffffffffff@@
mov_byte_ptr_[rax]_0x20,
mov_esi_dword_ptr_[rdx+8],
mov_r12d_r15d,
chk
lea_rsi_[rsp+0x90],
rol_ax_8,
ipmi
link
mov_rbx_qword_ptr_[rsp+0x30],
11c],
mov_eax_0x2@@
mov_r11d_dword_ptr_[rsp+8],
mov_rax_qword_ptr_[rax*8+0x6@@
mov_rdi_qword_ptr_[rsp+0xa0],
mov_rdx_qword_ptr_[rip+0x210@@
shr_rax_cl,
target
mov_edx_dword_ptr_[rax+0x1@@
mov_rax_qword_ptr_[rbp-0x140],
restore
xor_edx_dword_ptr_[r@@
11+0x1@@
arch
bash
mov_edx_0x44@@
mov_qword_ptr_[rbp-0x16@@
xmu
360],
64]_1,
mov_r12d_r14d,
mov_r8_qword_ptr_[rsp+0x38],
mov_rdx_qword_ptr_[rsp+0x70],
114],
_dword_ptr_[rsp+8],
jg_0xa@@
mov_eax_dword_ptr_[rbp-0x74],
prompt
sizeof
mov_dword_ptr_[rax+0x28]_edx,
uuconf
mov_r8_qword_ptr_[rsp+0x40],
dbreg
mov_r15_qword_ptr_[rsp+0x30],
30]_rcx,
mov_r12_qword_ptr_[rsp+0x10],
mov_rax_qword_ptr_[rsp+0xb0],
hol
jne_0x55@@
mov_dword_ptr_[rsp+8]_r10d,
movdqu_xmm4@@
trig
vmovups@@
8+rax],
mov_esi_0x5b@@
mov_rdi_qword_ptr_[rsp+0x88],
source
124],
cmp_qword_ptr_[rax+0xc0]_0,
f0]_1,
jl_0xffffffffffff@@
movsxd_rdx_dword_ptr_[rsp+0x@@
root
test_ch@@
8]_5,
dx-8],
fc]_0,
lock_xadd_dword_ptr_[rdx]_eax,
mov_dword_ptr_[rsp+0xd@@
mov_r10d_dword_ptr_[rsp+0x18],
safe
548],
mov_qword_ptr_[rip+0x218@@
or_dword_ptr_[rip+0x2@@
t
charset
connect
mov_eax_dword_ptr_[rsp+0x60],
mov_rax_qword_ptr_[rbp-0xf@@
num
refresh
6c0],
cmp_rdi_qword_ptr_[rsp],
mov_eax_dword_ptr_[rip+0x214@@
mov_rdi_qword_ptr_[r14+0x10],
program
zone
900],
_dl@@
head
i@@
jg_0x3@@
lea_rax_[r12+0x10],
rk6errarg
setne_@@
2f0],
3d0],
500],
_rdi_rdi,
draw
memory
mov_qword_ptr_[r15+8]_rax,
movzx_r11d_word_ptr_[r@@
-4]_eax,
lock_xadd_dword_ptr_[r@@
test_byte_ptr_[rcx+0x@@
3a0],
and_dl@@
lea_r8_[rip+0x20@@
mov_edx_dword_ptr_[r14],
mov_qword_ptr_[rsp+0x20]_r10,
priority
jge_0xffffffffffff@@
mov_rax_qword_ptr_[rbp-0x168],
packet
xcms
2si@@
c2epkc
cvtt@@
devno
dispatch
mov_qword_ptr_[r14+8]_rax,
mov_r8d_dword_ptr_[rax+0x28],
mov_rcx_r11,
3b0],
cmp_qword_ptr_[rsp+0x28]_0,
test_r13d@@
xor_edx_eax,
5cc,
_ecx_ecx,
ali
ftdemo
4c0],
6d]_0,
_qword_ptr_[rsp+0x90],
cmp_dword_ptr_[r15+0x1@@
mov_qword_ptr_[rsp+0xc0]_rax,
utf8
zn12html
4c8],
8c]_eax,
changed
mov_eax_dword_ptr_[rsp+0x78],
policy
20]_xmm2,
_byte_ptr_[rsi+0x1@@
and_rcx_0xfffffffffffffffa,
mov_byte_ptr_[r14+@@
offset
3f8],
_xmm2_xmmword_ptr_[r@@
act
mov_qword_ptr_[rbp-0x48@@
mov_r11_qword_ptr_[rsp],
mov_rsi_qword_ptr_[rsp+0x80],
security
signals
mov_rdx_qword_ptr_[rsp+0x98],
1eb@@
1get
]_-2,
movdqa_xmm2_xmmword_ptr_[r@@
6666@@
889,
cl,
mov_rdi_qword_ptr_[rip+0x213@@
site
est4less
len
mov_rdx_qword_ptr_[r15+8],
znst8
mov_edx_dword_ptr_[rsp+0x30],
mov_rbp_qword_ptr_[rsp+0x28],
mov_esi_0x49@@
add_dword_ptr_[rax+0x@@
buf
gconv
310],
method
mov_word_ptr_[rsi+0x1@@
present
add_rcx_rcx,
ax*4+0x@@
je_0xe@@
prepare
15+0xc],
loop
mov_dword_ptr_[rsp+0x18]_r10d,
movdqa_xmm1_xmmword_ptr_[rsi],
sub_r11@@
terminal
1010@@
60c,
login
mov_eax_dword_ptr_[rbp-0x98],
hostlist
resize
460],
538],
700],
cbuf
lea_r10d@@
mov_rax_qword_ptr_[r15+0xe0],
shr_r9d@@
]
mov_rax_qword_ptr_[rbp-0x1a0],
667,
]_ymm@@
call_0xfffffffffff92@@
cond
mov_dword_ptr_[rsp+0x68]_eax,
mov_rdi_qword_ptr_[rip+0x23@@
or_rcx@@
pager
9a7,
afb@@
movdqa_xmm2_xmmword_ptr_[rdi+rcx],
lea_rsi_[rsp+0xa0],
task
listener
mov_r11_qword_ptr_[rsp+0x20],
store
330],
attach
dst
20]_8,
bytes
sm
sp+0x120],
*4+0x4d@@
50]_3,
generate
label
lea_rax_[rip+0x16@@
lea_rsi_[rip+0xd0@@
sig
xstrdup
0]_r11,
1set
mov_r14_qword_ptr_[rsp+0x20],
movdqu_xmmword_ptr_[rdi@@
bb
lsn
mov_qword_ptr_[rbp-0x17@@
scsi
directory
files
h@@
lea_rax_[rip+0x15@@
mov_rdi_qword_ptr_[rsp+0xb0],
mp
simple
11+8],
88888888@@
mov_rax_qword_ptr_[rbp-0x158],
_xmm1_xmmword_ptr_[r@@
ffffffff@@
add_rsi_rcx,
enter
try
28]_8,
acl
b0]_1,
journal
my
s4
[@@
_ebp_ebp,
stop
mov_dword_ptr_[rsp+8]_r11d,
symbol
41c],
daemon
def
mov_dword_ptr_[rax-@@
mov_dword_ptr_[rbp-0x11@@
switch
zn6hw
827@@
ja_0xfffffffffffffd@@
mov_byte_ptr_[rax]_0x5c,
mov_dword_ptr_[rsp+0x5c]_eax,
mov_qword_ptr_[rip+0x21a@@
no
shr_r9d_cl,
8]_r10d,
mov_byte_ptr_[r13+0x@@
rewind
_qword_ptr_[rsp+0x88],
maybe
mov_ecx_dword_ptr_[r14+0x28],
mov_r@@
mov_rcx_0x10,
pstdout
470],
_xmm6,
mov_r15_qword_ptr_[rsp+0x28],
s2
_0xffff870@@
add_r10_0x10,
back
completion
movsd_xmm0@@
5b8],
_dword_ptr_[rsp+0x20],
_xword_ptr_[r@@
add_eax_0x30,
dq@@
mov_r10d_dword_ptr_[rsp+0x10],
3e0],
_xmm0_xmm@@
bmap
movdqu_xmm0_xmmword_ptr_[rsi],
varbuf
abort
lea_r8_[rbp-0x@@
ptr
uuid
xor_r9d@@
508],
mov_dword_ptr_[rsp+0x28]_1,
mov_ecx_dword_ptr_[r15],
view
1010101],
bulk
mov_dword_ptr_[rsp+0x20]_1,
mov_qword_ptr_[rsp+0x30]_r9,
mov_qword_ptr_[rsp+0xd0]_rax,
mov_r10_qword_ptr_[rsp+0x20],
_xmm1_xmm4,
eee
mov_byte_ptr_[r15+0x@@
mov_eax_dword_ptr_[rbp-0x70],
req
bx-4],
step
4e0],
boot
clone
jmp_0xffffffffffffec@@
mov_r12_qword_ptr_[rsp+0x20],
reg
sp+0x10]_1,
]_r9,
iconv
j@@
menu
mov_byte_ptr_[rax+0x10]_0,
mov_rdi_qword_ptr_[rsp+0xc0],
quota
timestamp
5c0],
execute
strdup
fetch
mov_dword_ptr_[rsp+0x10]_r10d,
mov_rax_qword_ptr_[rbp-0x7@@
mov_rdx_qword_ptr_[rsp+0x88],
yyget
ignore
result
zn15charinfo
jbe_0xffffffffffff@@
mov_eax_dword_ptr_[rbp-0x68],
mov_r8_qword_ptr_[rsp+0x48],
rule
20c],
encrypt
kill
nd@@
activate
ax]_xmm0,
iterate
resource
w
jmp_0xffffffffffffed@@
mov_r13_qword_ptr_[rsp+0x20],
mov_rax_qword_ptr_[rbp-0x150],
428]_8,
ep5glyph
matches
rewrite
_qword_ptr_[rsi],
_xmm1_xmm@@
hdy
mov_r14_qword_ptr_[rsp+0x28],
select1st
600],
_dword_ptr_[rsp+0x28],
keys
cmp_rdi_qword_ptr_[rbp-0x@@
dispose
trigdef
1]_4,
macro
undo
jne_0xe@@
term
bx_rbx,
mov_ecx_dword_ptr_[rsp+0x38],
mpi
mov_edx_dword_ptr_[rsp+0x38],
custom
extent
iobuf
mov_qword_ptr_[rsp+0x20]_r11,
port
mov_edx_dword_ptr_[rsp+0x40],
warning
_r12d_r12d,
bt
mov_r8d_dword_ptr_[rsp+0x28],
mov_rbp_qword_ptr_[rsp+0x20],
nl
up
dx+rax*4],
mov_r10_qword_ptr_[rsp+0x28],
_xmm1_xmm5,
glob
jle_0x40,
argv
gem
mov_rdx_qword_ptr_[rbp+0xe0],
movdqa_xmm4@@
s
-7],
cmp_qword_ptr_[rbx+@@
xor_rcx@@
520],
mov_qword_ptr_[rsp+0xe0]_rax,
mov_rdi_qword_ptr_[r15+0x18],
child
disable
lea_rcx_[rip+0x57@@
mov_rdi_qword_ptr_[rcx+8],
pcmpeq@@
exists
mov_eax_dword_ptr_[rdx+rax*4],
mov_eax_dword_ptr_[rdx+rax],
real
mov_ecx_dword_ptr_[rsp+0x30],
mov_rsi_qword_ptr_[rsp+0x90],
prev
surface
xor_eax_dword_ptr_[rbp-0x@@
0]_r8d,
420]@@
mov_dword_ptr_[rsp+0xe@@
movaps_xmm2_xmmword_ptr_[r@@
ps
ram
beb@@
lib
pslldq_xmm2@@
stuff
sub_dword_ptr_[rsp+0x@@
[0x@@
a0]_1,
expression
failover
ll
mov_eax_dword_ptr_[rsp+0x54],
mov_qword_ptr_[rip+0x21c@@
p8
xrealloc
4d8],
jmp_0xffffffffffffee@@
note
14+0x98],
member
mov_r11d_dword_ptr_[rsp+0x10],
set@@
5a0],
transform
msgset
use
area
encode
ext
je_@@
movsx_rbx@@
gnupg
530],
nc
warn
bool
kbd
mov_r12_qword_ptr_[rbp-0x@@
hint
lines
pane
x11
exception
lea_rax_[r13+0x10],
libc
rk6string
zn6string
jmp_0xffffffffffffeb@@
or_dl@@
passwd
salvage
sd_xmm0_qword_ptr_[rbp-0x@@
and_al@@
and_eax_dword_ptr_[rbp-0x@@
cvt@@
mov_byte_ptr_[r14+0x@@
mov_rdi_qword_ptr_[rsp+0xd0],
pos
5b0],
cx-0x1010101],
mov_r14_qword_ptr_[rbp-0x@@
mov_rdx_qword_ptr_[rsp+0x80],
si-4],
]_-@@
mov_rax_qword_ptr_[rbp-0xa@@
mov_rcx_qword_ptr_[rsp+0x60],
0]_r9d,
dbname
dbus
jne_0xf@@
glyph
mov_byte_ptr_[rax]_0x27,
mov_dword_ptr_[rsp+0x60]_eax,
mov_rbx_qword_ptr_[rsp+0x40],
movdqa_xmm2_xmmword_ptr_[rdi],
reader
attributes
gtk
test_r8@@
xfixes
zero
inmem
linked
101],
5e8],
eval
fmtstream
jsonw
mov_rsi_qword_ptr_[rsp+0x98],
mpool
sequence
short
xalloc
13+0x98],
unwind
mov_rsi_qword_ptr_[rsp+0x88],
5c8],
9999@@
full
queue
totext
movdqa_xmm7@@
movzx_esi_byte_ptr_[rsp+0x@@
special
sv
mov_qword_ptr_[rsp+0x28]_r10,
movsx_esi_al,
_qword_ptr_[rsp+0xa0],
assign
join
metadata
sp+0x10]_xmm0,
8d_r8d,
mov_r10d_dword_ptr_[rsp],
part
accept
date
is5
je_0xf@@
mov_qword_ptr_[rsp+0xf0]_rax,
mov_rax_qword_ptr_[r13+0xe0],
4f0],
jbe_0x1c,
mov_dword_ptr_[rsp+0x10]_r11d,
movaps_xmmword_ptr_[rdi+0x@@
return
aliases
lea_rdx_[r11@@
segment
where
80]_xmm0,
lea_rbx_[rsp+0x1@@
mov_qword_ptr_[rdi]_rcx,
movdqa_xmm8_xmm1,
ui
lvmcache
movdqa_xmm3_xmmword_ptr_[r@@
30]_xmm3,
mount
w,
mov_rax_qword_ptr_[r14+0xe0],
mov_rax_qword_ptr_[rbp-0x207@@
ptable
seat
unique
unknown
xa
zn11search
mov_dword_ptr_[rsp+0xf@@
ror_rax@@
forward
jbe_0xfffffffffffffd@@
movdqa_xmm10_xmm2,
movdqa_xmm9_xmm6,
row
t@@
je_0x9@@
jmp_0xfffffffffffff7@@
module
mov_r9_qword_ptr_[rsp+0x40],
movdqa_xmm11_xmm6,
pcmpgtb_xmm8_xmm5,
push_0x@@
conn
setdbname
si-8],
sub_r10_0x1000,
aaaaaa@@
aux
n2a
not
colors
element
modify
res
_st(@@
fmt
jmp_0xffffffffffffea@@
sub_r11_0x10,
xget
),
4d0],
ensure
foreach
mech
pid
question
rknst7
section
_0xfffc,
cmp_dword_ptr_[rbp-0x2@@
fix
unlink
access
blob
is1
ascii
detach
escape
finalize
job
lock_@@
pcmpgtb_xmm9_xmm1,
backward
bsf@@
md5
mov_rax_qword_ptr_[rbp-0x178],
ply
policydb
pcmpgtb_xmm10_xmm5,
url
5d8],
_cl_al,
jle_0xffffffffffff@@
movdqa_xmm4_xmm2,
pattern
helper
movaps_xmm4@@
obj
oem
yylex
zn11db
znk6hw
15+0x110],
_qword_ptr_[rsp+0x98],
eppkc
point
private
xset
510],
_xmm0_xmm5,
grow
lg
marshal
mov_qword_ptr_[rsp+0x28]_r11,
mov_r10_qword_ptr_[rsp+0x30],
pcmpgtb_xmm11_xmm2,
st4pair
statement
4e8],
540],
ec0],
mov_r11_qword_ptr_[rsp+0x28],
random
s@@
it
jmp_r9,
multi
ep5db
fail
md
mov_r13_qword_ptr_[rsp+0x30],
volume
_qword_ptr_[rsp+0xb0],
gettext
pand_xmm10_xmm11,
pand_xmm10_xmm7,
pand_xmm8_xmm7,
pand_xmm8_xmm9,
test_r13@@
active
mov_r11_r9,
por_xmm1_xmm8,
sub_rax_0x10,
_dh,
di+rdx-0x@@
ep8
erknst7
lea_rax_[rbp-0x10@@
or_ecx_0xffffffff,
5d0],
extension
pcmpgtb_xmm@@
7e0],
assoc
calc
keymap
por_xmm2_xmm10,
560],
adjust
is8
movaps_xmm3_xmmword_ptr_[r@@
net
nscd
pack
pubkey
fopen
nssov
temp
mov_r11d_dword_ptr_[rsp+0x18],
movaps_xmm5@@
5a8],
cmp_eax_0xffff87@@
comment
mov_rdi_qword_ptr_[rsp+0x98],
boolean
jmp_0xffffffffffffe0@@
mov_dword_ptr_[rdi-@@
mov_rdx_qword_ptr_[rsp+0xa8],
pointer
]_r10,
ca
ddns
extend
integer
xv
yyset
template
_esi_esi,
mov_r9_qword_ptr_[rsp+0x48],
encoding
import
indent
ip
pcmpeqb_xmm2_xmm1,
types
mov_rax_qword_ptr_[rsp+0xd0],
notify
sa
seek
algo
atomic
cdebconf
cell
mov_eax_dword_ptr_[rbp-0x2@@
val
channel
gl
partitions
sudoers
6ed@@
mov_r13_qword_ptr_[rbp-0x@@
mov_rdx_qword_ptr_[rsp+0x90],
packed
trap
clean
mov_r8_qword_ptr_[rsp+0x50],
mov_rdi_qword_ptr_[rsp+0xe0],
shutdown
wal
xcalloc
zn23glyph
and_r10@@
c9]_2,
empty
h
iface
install
trim
mov_dword_ptr_[rax-8]_ecx,
mov_esi_0x100@@
ax-0x18],
bp_rbp,
bug
cmph
cookie
frame
mov_rdi_qword_ptr_[rsp+0x130],
role
double
hex
param
desc
discard
network
pending
percent
_qword_ptr_[rsp+0xb8],
compact
dec
mov_edx_dword_ptr_[rax-8],
mov_r15_qword_ptr_[rbp-0x@@
test_r14@@
z@@
670],
_al@@
backing
ep5glyphi
listen
parent
rol_eax@@
swap
970],
conf
tab
-0x40],
cu
_r13d_r13d,
ch
mb
mov_rax_qword_ptr_[rbp-0x170],
null
archive
colon
const
overflow
pair
c2epkci
human
isxdigit
jmp_0xffffffffffffdd@@
limit
normalize
raid
8]_r11d,
apply
canonicalize
failure
fromtext
m@@
mov_r10_qword_ptr_[rbp-0x@@
sse2
xmemdup
_xmm8@@
decrypt
fts
ldap
pmovmskb_r9d_xmm2,
ptest_xmm0_xmm2,
shared
tls
trans
v2
11+rdx*4],
binding
hamc
lea_r11d@@
modstatdb
ea
layout
movdqu_xmmword_ptr_[r@@
pipe
previous
xzalloc
zn9text
epi
shm
u32
extents
ffffffff,
mov_r10_qword_ptr_[rsp+0x38],
psubb_xmm2_xmm0,
seg
each
numeric
_0xf4@@
compressed
database
ioctl
lea_rsi_[rdx-0x@@
logc
rec
response
zn9html
620],
a2n
left
lineno
named
nodes
cluster
movdqa_xmm3_xmmword_ptr_[rdi],
peek
pu@@
blocks
deinit
mov_rax_qword_ptr_[rbp-0xc@@
mov_rdi_qword_ptr_[rsp+0xf0],
mov_rsi_qword_ptr_[rsp+0xa0],
ph
proto
recutl
evaluate
package
pcmpistri@@
tcp
thin
10]_xmm1,
5a6]_1,
defaults
drop
over
cdsgroup
mail
ref
chars
cmp_byte_ptr_[rbp-0x6c]_0,
comi@@
italic
ppc
shadow
vtab
devname
mov_ecx_0x40b410,
plugin
s5
app
cancel
fi
mask
mft
pixmap
ss
epkci
sd_xmm0_xmm1,
strtod
struct
unpack
va
auparse
cd
cmp_dword_ptr_[rbp-0x94]_2,
cmp_r11_r9,
lp
pthread
test_r10b@@
unregister
binary
ckp
fast
geom
is4
mapping
movdqa_xmm0_xmmword_ptr_[rdi+rdx],
inet
je_0xffffffffffff@@
modifier
mov_qword_ptr_[rbp-0x47@@
movaps_xmm1_xmmword_ptr_[r@@
normal
strend
xfrm
xlc
7d0],
94]_2,
argmatch
best
db185
down
mmap
stdin
strv
xdr
hostname
timer
vector
xattr
force
location
mov_qword_ptr_[rsp+0x38]_r10,
strtou32
alarm
and_r10_0xfff,
bpf
byte
compile
domain
ja_0xfffffffffffff@@
strcasecmp
_zmm@@
account
decompress
e80],
jg_0xfffffffffffffd@@
movaps@@
ns
pc
position
rep_stosd_dword_ptr_[rdi]_eax,
schema
api
blit
cachesize
jmp_0xfffffffffffff8@@
lea_ecx@@
mov_rdi_qword_ptr_[rsp+0xa8],
readf
regex
crdel
hostrange
loopdev
reporting
suffix
buffers
digest
ij
inst7
snprintf
argument
ax]_0,
basename
fch
pk
psrldq_xmm3@@
selection
subnet
test_r15@@
u64
unmark
concat
correction
cur
fileid
mov_dword_ptr_[rbx+0x28@@
only
_eax_xmm0,
auto
chain
cs
home
idle
nss
r6string
test_r12@@
jb_0xffffffffffff@@
src
commandi
cvt
mirror
strtosize
trunc
b5cxx11
dri2
fclose
syn
walk
component
dmi
ip@@
properties
readline
sub_rdx_0x80,
di]_eax,
events
export
fake
getenv
jmp_0xffffffffffffef@@
jmp_0xfffffffffffff6@@
p8argument
zn6errarg
_r15d_r15d,
dbt
goto
grid
monitor
rtree
av
dbm
jmp_0xffffffffffffdb@@
mbtowc
peer
wordsplit
blank
chd
folder
jmp_0xffffffffffffda@@
master
pcmpeqb_xmm0_xmm3,
rdataset
replies
sector
sil,
trigger
wctomb
xor_r@@
xor_rsi@@
checkout
escaped
is2
keyboard
native
requestv
selabel
serial
strtol
breakpoint
email
errno
recv
sha1
trailing
universe
arn
bdz
eeev
fld@@
gnu
have
relink
elf
is6
quoted
sasldb
subproc
used
bg
cipher
height
ld@@
mov_dword_ptr_[rbp-0x48@@
pretty
splash
unmap
ask
case
dict
mls
movdqu_xmmword_ptr_[rdi-0x@@
node4copy
params
per
readlink
_qword_ptr_@@
_xmm2_xmm2,
erase
keyseq
unparse
zn10db
crtc
disconnect
ia
keydb
nouveau
pk11environment
poll
scroll
strtoul
zn10ps
4ce@@
_r14d_r14d,
bad
devices
ipv6
jmp_0xfffffffffffff5@@
r6source
strlist
_qword_ptr_fs:@@
backend
loc
pkci
resolver
sid
strcspn
xor_rdi@@
corrected
csum
ftp
hdr
movdqa_xmm3_xmm4,
multiple
pixel
redraw
scope
st@@
fields
gshadow
keyblock
mda
mkdir
nfnl
non
pmovmskb_r9d@@
sh@@
tp
znst7
cdb
ee0],
fn
gblender
glue
jns_0xffffffffffff@@
movups@@
stmt
strerror
structure
cached
can
checkpoint
compat
equal
grant
kern
lex
locked
movaps_xmm6@@
movaps_xmmword_ptr_[rdi-0x@@
bindings
fstat
panic
pt
statusbar
est10
geometry
indicator
movaps_xmm7@@
mpn
as
disk
getfd
jbe_0xfffffffffffff@@
jmp_0xffffffffffffdc@@
old
sign
traverse
xfree
core
elect
formats
j
newline
pad
strcmp
xdmcp
xnrealloc
zn17index
after
fname
language
library
mailbox
ndbm
pr
receive
unref
zn9cset
available
cdf
gi
p4node
spaces
strappend
txnlist
x@@
_ax_8,
answer
bitmap2
bs@@
ep4node
failchk
jobs
prt
syntax
udev
unbind
xnmalloc
zn5dbstl15
align
iks1
je_0x1a@@
secure
strtos32
strtou64
zn11input
async
controls
mov_rdi_qword_ptr_[rsp+0x120],
ok
perms
signature
ssse3
test_r10@@
tex
zn16resource
ah@@
fsysdep
lea_r9_[rcx+r11-0x10],
memmove
posix
restyled
subordinate
clock
hosts
js_0xffffffffffff@@
oc
quit
tc
total
trk
vars
9d_r9d,
_xmm8,
crypt
fflush
nocancel
sensor
strnappend
xsync
bz2
mod
movdqa_xmm9@@
mrns
mul
strtotimeval
unset
vfs
10_xmm2,
_rdx_rdx,
background
dirs
epc
final
isdigit
messages
perror
strtos16
subst
sys
aes
big
bit
character
children
fline
initial
por@@
static
strtos64
znst6vector
_rcx_rcx,
dn
membership
mov_rax_qword_ptr_[rsp+0xf0],
restart
rgb
strip
translate
xf86dri
zn4font8get
_dword_ptr_[rdi]_eax,
ba
enum
explain
infodb
lvconvert
rol_rax@@
rollback
variables
xor_rbx@@
bus
cloexec
conv
delim
depth
detect
echo
fvm
increment
keybox
keyring
pages
sessions
sorter
streq
tmp
8_xmm1,
coproc
ldif
mk
perm
sequences
acct
authenticate
buffered
intercept
matchpathcon
movdqa_xmm8_xmm5,
parameter
printer
rdata
reverse
rtrn
sighandler
test_r11b@@
tilde
tx
xrm
_xmm9@@
dbj
getulong
icon
mbchar
must
pathname
picture
ps2
radeon
remote
rk9line
test_r9@@
top
tostruct
vendor
lea_edx@@
lvm
mbs
netns
reloc
right
shape
title
xml
_ah@@
await
erk8position
fallback
getlong
min
movdqa_xmm10_xmm5,
pand_xmm7_xmm6,
pand_xmm7_xmm8,
pand_xmm9_xmm10,
pand_xmm9_xmm6,
pcmpgtb_xmm7_xmm4,
pcmpgtb_xmm9_xmm4,
post
revoke
_0x800000000@@
colormap
dc]@@
ejj
fork
fwd
gc
leaf
movaps_xmmword_ptr_[rbp-0x60@@
node4type
p5color
por_xmm0_xmm@@
por_xmm1_xmm@@
rw
transaction
_r11d_r11d,
arb
bounds
counter
epipe
generator
heapc
jle_0xfffffffffffffd@@
lea_rax@@
primary
progname
proper
safer
tcl
typelib
1]_0x80,
alternative
cfg
d40],
ematch
fgets
handshake
in4isis7
tor
typed
tz
assignment
com@@
composite
pkgbin
por_xmm2@@
resources
s64
shift
sockaddr
unaligned
wc
]_byte_ptr_[r@@
_b@@
_ptr_@@
bc
c2erks
extended
ifunc
include
ipst10shared
movsxd_rdx_dword_ptr_[r11+rdx*4],
mpz
overlay
regs
yte@@
zst8
ar
bucket
construct
contains
driver
fh
im
inc
invalid
jmp_0xfffffffffffffbb@@
openpgp
recycle
ssl
toggle
xtrans
yank
zn17troff
addrem
agent
cccccc@@
eh
entries
fence
ps1
redirect
sigint
tablesize
wholedisk
8_xmm0,
_eax_eax,
_xmmword_ptr_[rsi-0x@@
affinity
dhcpctl
digit
ep17troff
external
fixed
iso8859
matching
origin
verbose
word_ptr_@@
wrapper
analyze
and_rax_qword_ptr_[rbp-0x@@
arc
box11debug
executable
fixup
p3box
secret
catch
cmdline
cobc
collect
crypto
doc
graph
limits
mov_r11_qword_ptr_[rbp-0x@@
mu
nst7
p8charinfo
prog
regop
reserved
ro@@
same
users
decl
illegal
intern
lea_rdx_[r11+rdx],
magic
pd
serks
slot
suspend
ulong
unused
byname
curadj
di]_0,
duplicate
eol
ev.cold
exclude
jle_0xfffffffffffff@@
mov_rdi_qword_ptr_[rsp+0x190],
abbrev
box6output
completions
dirent
est23
got
int64
panel
ptable6define
yyparse
zn6stringp
]_xmm@@
allowed
asm
epfv
freelist
irepository
jump
mov_rdi_qword_ptr_[rsp+0x1e0],
pagesize
paths
sigwinch
blk
getc
iss
je_0xfffffffffffffc@@
nested
node.cold
p6statemi
phys
rowid
sec
setname
two
any
basic
bitset
comp
contents
debugobj
em
epfi
exp
f20],
fprintf
fseeko
gpm
mmp
mov_ebp_0x1@@
mov_rdi_qword_ptr_[rsp+0x1b0],
ntop
prepend
symtab
takeover
tunable
virtual
vote
whitespace
z8scan
zn6stringa
ack
ep9text
fstype
mov_rax_qword_ptr_[rbp-0x11@@
ptable11lookupassoc
slave
unsigned
assert
brz
button
dnode
fsync
gettime
netlink
palignr_xmm2_xmm3@@
pcache1
pch
rlr
sk
xasprintf
c2ev.part.0
cwd
enqueue
environ
fat
g10
hide
ptable6lookup
reduce
sprite
zn13simple
10_xmm1,
_d@@
authorized
clip
col
diff
float
metrics
nowait
npck@@
power
restricted
summary
warc
be
configure
continue
eof
feature
jg_0xfffffffffffff@@
movdqa_xmm1_xmmword_ptr_[rsi+rdx],
regexp
rtattr
tags
test_r11@@
.cold
body
buckets
chunk
define
details
dhc6
ds
dynamic
e2p
ee8
filereg
ir
iso
leng
readonly
recovery
scheme
xwc
avrule
b410,
bits
forget
jmp_0xfffffffffffff7a@@
linear
linux
paste
reload
rijndael
slist
tar
cpu
ditem
jmp_0xfffffffffffff98@@
leave
ot
override
psrldq_xmm0@@
puts
q
qamc
rectangles
rep_movs@@
rt
slash
sql
storage
strfappend
tables
x509
zn10html
1rep
added
constraint
eid
explicit
hasher
mov_rax_qword_ptr_@@
needed
opendir
order
pitem
por_xmm2_xmm3,
public
sym
vpand_xmm10_xmm10_xmm6,
vpand_xmm8_xmm8_xmm6,
vpandn_xmm10_xmm10_xmm9,
vpandn_xmm8_xmm8_xmm7,
vpcmpgtb_xmm10@@
vpcmpgtb_xmm7@@
vpcmpgtb_xmm8@@
vpcmpgtb_xmm9@@
vpor_xmm1_xmm@@
zn4font
allow
ancillary
dblist
dequote
failedi
gmdb
hard
itable
jmp_0xfffffffffffff4@@
keyserver
maps
memcpy
mi
rubout
supported
utmp
wfile
z16assertion
zn11dvi
absolute
ao
auxprop
base64
bh
calloc
eii
envreg
epst13
fds
fileinfo
freedata
inflate
lak
localtime
metachk
once
openssl
or_esi_0xffffffff,
pcmpistri_xmm0_xmm1_0x1a,
pget
poly
pragma
prop
pton
rfc822db
standard
strings
symlink
union
xtrace
zn8int
zn9string
1max
drawable
el
exitcode
family
fk
irq
is7
jb_0xfffffffffffff@@
lower
sectors
strutils
strvec
tokenize
words
xmb
yydestruct
atom
automatic
checksum
conffile
cpuset
describe
dil,
dirty
dri3
groupalloc
mempool
mov_qword_ptr_[rbp-0x4a@@
movaps_xmmword_ptr_[rsp+0x60@@
php
protect
rta
self
transfer
uint32
zdl
zn4font9get
advance
break
conflicts
enc
metagroup
mov_rax_qword_ptr_[rbp-0x828],
nsites
o
parsedb
pend
ring
snapshot
super
widths
zn4font9load
appdebug.cpp
avtab
dollar
env16set
hline
lvs
mktime
ovref
pipeline
pk14entry
printable
reg10get
tabs
underflow
wire
zn6db
bmz8
box15compute
busy
card
chm
cpulist
direct
encoded
homedir
invalidate
mac
movaps_xmm3@@
owner
prime
pstm
sha512
std
test_dx@@
void
z8errprint
zn10glyph
cut
dead
errmsg
grab
jmp_0xfffffffffffff9f@@
machine
modules
newfile
node6tprint
resume
retry
uint
ulog
username
whom
wrt
add_rax_0x10@@
addrs
choose
components
constant
ed
eees6
egen
es
hashtab
identity
jmp_0xfffffffffffff9d@@
newt
putdef
segments
service
vec
wipe
xch@@
yyerror
dirlist
diversion
ec
hmac
icount
interactive
interfaces
p5db
passoc
provider
rank
ror_eax@@
sanitize
sock
strtou16
subdb
unum
writable
brace
cksum
demangle
ebitmap
engine
hw
knuth
mouse
off
secondary
sources
vfprintf
znwm
actions
addattr
autogroup
cert
dicod
dstate
eps
gm
i10error
i18n
incr
isa
jmp_0xfffffffffffff9@@
jmp_0xfffffffffffff9b@@
mbsstr
mbuiter
morris
opts
pratt
prep
sha256
tally
zl27do
zsysdep
c2ei
coll
cpr
doit
enabled
fifo
jmp_0xfffffffffffff9c@@
meta2pgset
mf
movaps_xmmword_ptr_[rbp-0x50@@
noop
pass
pii
recipient
schedule
unload
until
upper
using
zn26left
adb
bmz
cat
classperms
csalpha
dotlock
escapes
fcntl
fsys
gamma
histogram
hunk
idx
ikj
isalive
jmp_0xfffffffffffff99@@
logger
palignr_xmm0_xmmword_ptr_[rdi+rdx-0x@@
pwd
rehash
reopen
rep_@@
sentence
subscript
tell
test_ax@@
want
xvmc
zn17character
associate
ch@@
connector
cursors
des
dlsym
fe
fini
fp
fqdn6
gather
gen7
groups
hints
inline
interest
jmp_0xfffffffffffff9a@@
keyword
lstat
objects
overwrite
seekoff
serialize
startup
the
widget
writev
yes
zn11char
_r@@
canon
chown
classify
dot
fctx
hashtable
hist
invoke
kbinput
mc
minmax
ordered
pause
rate
references
remember
rr
s8
sdr
shopt
slapd
writer
y
z18check
zn12troff
zn21italic
c2epk5table
content
ctype
cw@@
d0ev.cold
datum
dquot
exitv
fputsx
jmp_0xfffffffffffff6d@@
jmp_0xfffffffffffffaa@@
layouts
packets
partc
permlsn
pgset
putsgent
registered
strncasecmp
terminate
unget
uw
windows
z16fatal
zl11scale
zn11tty
znk6errarg5print
arith
bell
capabilities
chdir
dc
eee.cold
env11set
extra
hooks
ids
ii
ipmipower
isd
jne_@@
kbnode
krb5
locks
mirrored
mounted
mpg
node9set
noninc
optstr
pgno
qtree
rk9reference
round
scale
statistics
strlen
subsystem
tail
uhd
uri
verbatim
z11scan
zn14kern
zn17font
_[r@@
_xmm3_xmmword_ptr_[r@@
attrs
be16
checkc
commands
cxx17
dirfd
expire
fgetsx
found
getline
gpg
indexer
instance
ip6
partial
plymouth
privilege
sum
tunnel
unescape
waiters
xs
zn2db13set
arrival
bin
blk64
callable
cdrom
chan
comma
ee17
except
game
getpass
gray
interrupt
logical
misaligned
mpfr
nolog
nomem
p3dbt
ramc
rbt
replay
rmid
rpc
sigchld
sleep
subexp
twiddler
watch
zn19top
assuan
authentication
barcode
dbiterator
edge
exclusive
fromstruct
getsgnam
insdel
ipv4
jenkins
jmp_0xfffffffffffff84@@
jmp_0xfffffffffffff97@@
links
mftrec
missing
oid
optimize
sol
strftime
syslog
tr@@
umount
vgchange
zn13common
zn9ps
acquire
ausearch
chgpg
chmod
cmp_rdi_0x6@@
collation
dirents
errfile
exchange
fgetsgent
go
http
kernel
memalign
movdqu_xmmword_ptr_[rdi+0x@@
mtab
node4same
pcache
pma
quotes
realm
rsplit
rules
seed
segtype
setenv
settings
sgetsgent
sscanf
stdc
t,
tuning
vlan
xattrs
xcreate
yypop
activation
alert
cells
dhcid
dummy
env16get
evp
foreign
granted
hashed
iks5
ip5db
is9
jmp_0xfffffffffffff65@@
jmp_0xfffffffffffff6f@@
readable
rest
seckey
sizes
striped
syscall
xid
zn10tex
20]_xmm4,
apnd
assemble
contexts
directive
eeesa
epv
erkss
ers3
estream
focus
functions
html
imap4d
in@@
interpreted
jne_0xfffffffffffffc@@
linev
node15get
pgcookie
pred
progcomp
range2
recursive
rush
s32
setsgent
sp
st9
strbuf
unlocked
visible
wdefault
ws
xutf8
zn12assert
1lk
adapter
ap
attribs
c2ep8
challenge
columns
di
dpms
frontend
gs2
gtype
interval
iovec
jmp_0xfffffffffffff95@@
jmp_0xfffffffffffff9e@@
mbiter
mgmt
p4
parameteriv
pk3dbt
rcpt
rkss
sprint
topology
trust
xkeyboard
z
zn14papersize
_r10d_r10d,
bz
clockskew
eeest4pair
encapsulate
epkcj
failed
formfile
ftruncate
inval
irep
is0
jmp_0xfffffffffffff8a@@
juniper
known
lf
major
md5final
me
memset
min@@
mov_rax_qword_ptr_[rbp-0x568],
mpihelp
phrase
pushbuf
raise
ready
singleton
threads
udhcp
wake
winlink
z5error
z7warning
alignment
c2ep3box
dvi
ed0ev
ee29
enumeration
filelist
keytable
labels
libntfscompat
lvseg
mbstoucs
mods
movdqu_xmmword_ptr_[rdi]_xmm0,
mpf
mr
nul
ping
prefetcht@@
pvs
recno
regerror
rsa
talk
tdbio
uparams
views
zl11detect
zn11object
zn14composite
_[rbp-0x@@
agp
bracket
c2ec
commandv
cx+r11@@
dbh
declaration
deref
description
eq
errx
filemode
fread
getchar
il
jmp_0xfffffffffffff6a@@
jmp_0xfffffffffffff88@@
macrov
of10
opcode
physector
poslist
raid0
refcount
reject
renderer
screensaver
secmem
sgetpwent
states
sun
timeouts
vgname
xdraw
xstrndup
year
yyensure
yyfree
_r1@@
_xmm10,
avx512
ci
consolidated
d2ev.cold
decrement
definition
ee24
eest10
errors
ers1
fwrite
ikev2
jmp_0xfffffffffffff7f@@
membuf
mmapsize
p9tree
pci
ppkc
relative
repl
resp
rm
saved
setopt
stash
util
validator
xquery
zn10space
zn11dbreak
armor
b64
bsize
combine
consume
csi
datestr
dbregid
firstkey
globals
icmp
ifile
impl
jmp_0xfffffffffffff8f@@
jmp_0xfffffffffffff94@@
lockers
logs
lvmetad
margin
openfd
own
past
reason
rsync
runtime
savepoint
sc
set11
sexp
sgi
subshell
thru
updated
v1
yypush
z5fatal
zn8rchar
1dir
animation
apdu
contract
deactivate
dependency
digits
filelife
flist
ikev1
parameterfv
parseuser
prompts
rebuild
regionmax
rotate
sbb_rdx@@
scanf
seen
skew
strtoll
submit
subwindows
thai
txt
upgrade
vasprintf
wsnode
xhas
xstats
zn9font
ad
adj
alist
changes
chksum
decompose
environment
ep8charinfo
getyn
ignored
intr
jmp_0xfffffffffffff7d@@
jmp_0xfffffffffffff85@@
jmp_0xfffffffffffff92@@
jmp_0xfffffffffffff93@@
locus
namespace
para
possible
revert
sem
srv
sss
subpkt
syncrepl
udp
uids
v6
vfunc
virt
xsession
yyalloc
z16get
zn3pcl6
zn7printer
znst6locale5facet
zoom
abandon
ccf
codegen
ctime
decision
deferred
eeeest10
eflag
feedback
hexstring
hits
lens
lvchange
movdqu_xmmword_ptr_[r8]_xmm0,
ms
netaddr
operation
payload
pf
qsort
quark
reg9get
rtc
sb@@
semantic
sgetgrent
stdio
strncpy
superblocks
swig
tok
transport
uniq
varint
visual
wcs
xeset
xsgetn
z11hash
zn10file
zn25db
ag
aggregate
avl
bound
bufmgr
configuration
cxx118numpunct
destructor
dfa
dsa
dumper
eed2ev
elem
fmtspec
frequency
funmap
hyphen
ino
invert
jmp_0xfffffffffffff78@@
jmp_0xfffffffffffff80@@
jmp_0xfffffffffffff87@@
jmp_0xfffffffffffff8b@@
lang
lepkc
lerks
logfile
mov_dword_ptr_[rbp-0x4a@@
node8add
packet6
padding
parameters
partno
pciii
prstr
track
tray
ungetc
wtmp
yield
zl8srealloc
block2
c0
closure
crc32
curl
dbop
delay
delref
ee12
entity
ers
fid
gcry
ipc
isearch
jmp_0xfffffffffffff96@@
locking
mov_qword_ptr_[rbp-0x49@@
movaps_xmmword_ptr_[rdx@@
pre
rc
reclaim
redirection
rep_sto@@
rmdir
sigaction
sse42
stpcpy
subclass
triple
xmkstemp
zl7xputenv
zn16possible
zn26index
zn4font18get
znk5color7get
8_xmm@@
applet
assigned
bench
bold
cons
curses
deps
ep2db
files3
fnmatch
fts3aux
fulluser
funcs
hz
icvalues
imvalues
interpret
ipfromstring
iso7816
jmp_0xfffffffffffff7e@@
levels
literal
model
movaps_xmmword_ptr_[rdi@@
mpls
notation
partlist
pass1
ppp
psubb@@
results
rk8position
salt
selected
sepkc
sidtab
sparse
spawn
statj
syserr
tek
u
unbound
uncache
vprintf
zipfile
zlt
zn15break
znk5color8get
backslash
batch
bi
bkref
capability
copypage
csp
dbg
deadlock
e0
enumerate
erks
expr8evaluate
fcreate
filepkc
fonts
fts3tok
hmacmd5
hostset
iasubopt
ipaddr
lists
lookup2
methods
metric
minus
modifiers
nlmsg
nonblock
nx
openat
pj
place
plain
plaintext
pm
r18substring
required
rttable
sizelimit
statements
stripoff
strtold
subtree
textdb
transit
tt
u16
uncompress
xtest
z7do
zn15page
zn16rectangle
zn24db
zn6string13remove
1flags
awaiter
conffiles
converter
copyin
csn
damage
delpg
dup2
enlarge
ep5macro
errcall
ether
fget
form
fsprobe
ftype
handlers
hmacsha256
ja_0xffffffffffff@@
keyid
mov_ebp_0x2@@
namei
nonblocking
other
pa
parts
ranges
rectangle
removed
rmt
scanline
sfx
should
sizej
splitdata
stable
strtox16
tabsize
td
traps
trimmed
unsetenv
us
xdrrec
xinerama
z10put
z16next
zle
znk6string7extract
awaited
backtrace
c2eii
cautious
certificate
cr
day
dbbackup
dell
devtree
digestmd5
dirfree
dos
eb
eeest10
eev
election
env15set
ep5glyphi.cold
getpwuid
glyphs
goff
impn
intermediate
jmp_0xfffffffffffff3@@
jmp_0xfffffffffffff8c@@
jmp_0xfffffffffffff90@@
lockall
maxsize
notimpl
otp
path18open
pies
pvmove
reinit
repeat
rst6vector
saver
smtp
some
supports
times
toobig
unit
usable
wcsmbs
word_ptr_fs:@@
xedit
xmbuf
xstr
yyrestart
zgt
zn10arc
zn6string10set
zn6string4move
zn6string6append
zn6symbol
zn9db
_xmm11,
caches
center
copyout
diag
duid
emplace
entry12simple
filters
fingerprint
fqdn
gawk
getno
hl@@
hostaddr
issuer
jmp_0xfffffffffffff8d@@
mknod
msgcall
obstack
openfiles
parents
passphrase
pcii
perform
processing
prpage
pty
readv
reap
rev
rtscope
running
rx
s7
saslauthd
sel
setcred
si
st20forward
stringi
strndup
symbols
tdm
threshold
u8
ungrab
vsnprintf
watched
xc
xgetpwnam
z9as
zge
zl11sfree
zn4font10get
a0
alock
applied
areas
augment
autoclear
avx
awk
base32
cats
cdel
cleanups
closedir
cpio
de
delext
dlclose
env15get
extensions
flow
getpwnam
grlist
guid
hmotion
ibendport
imsg
ini
int32
jmp_0xfffffffffffff75@@
jmp_0xfffffffffffff7b@@
kg
led
loader
lzma
mangled
misc
more
nameop
nameref
nextkey
node9get
nsec3
om
pap
porter
pp11hyphen
rand
readdir
resolv
rxclass
sbuf
sites
statfs
svc
trigpend
ts
white
xsputn
z10get
zl6ewrite
zn11lj4
zn12special
zn13ligature
zn23space
zn4font21get
zn4font27get
znk6string6search
bitmaps
builder
c2e6vunits
cadjust
condition
conversion
deflate
discover
doallocate
env11get
epii
ex
exported
findfile
fundef
hmacsha384
inodes
into
ipkc
jmp_0xfffffffffffff77@@
lockd
mandatory
meta1
metasub
minor
mm
modified
mon
mtxcount
nlfile
numbered
operator
paged
pamc
partscan
passthrough
persistent
pk8int
plane
processes
rcuradj
snap
st
std::string::ctr
strnlen1
this
trigaw
uint16
z15parse
zn11line
zn15macro
zn15word
zn4font26get
1log
again
argsv
aulookup
b0
become
broadcast
ccid
changeslot
charclass
choice
cielab
compatible
cplus
critical
ecl
eji
eopt
erms
et
ffactor
fput
freeze
fun
hmacsha1
hmacsha224
ilist
images
inner
interact
ioinfo
jfs
jmp_0xfffffffffffff8e@@
k
layer
leases
mkstemp
month
msgfile
multiarch
np@@
nth
p5glyph
p9direction
parm
path9open
rdatasetiter
redisplay
retrieve
ritem
robust
scd
sep
span
stopped
strncmp
tio
usysdep
v
vtable
wchar
work
x2nrealloc
xopen
xshape
z12scan
zn4font4load
1lg
1mutex
1priority
8080@@
annotation
architecture
arrow
backspace
bar
chauthtok
cieluv
collection
confmodule
corrupt
cpus
ctrls
delayed
descriptor
dialog
ep5glyphii
execve
extfs
finished
ftpfs
glyphi
halt
hashmeta
hmacsha512
i2d
incfirst
instruction
isb
isl
ks
lfn
ln
logging
ls
mdas
minkey
msc
msgadd
multibyte
mvptr
needs
newpage
nr
p11environment
paper
pk8
populate
prdbt
ps0
rdatalist
readfd
regionsize
replicator
require
searcher
sl
snmp
sqlite3changeset
strs
subseq
tasks
usb
z15number
z17interpret
zn13suppress
zn15overstrike
zn22unbreakable
zn5dbstl12db
zn8tag
alt
american
annotate
badblocks
bgp
blocksize
br@@
cap
charfield
cmdq
configversion
cpp
dbrename
dnssec
dso
ee
en9
ep8position
ext3
ferr
file4next
forw
fpr
good
gssapi
heapsize
jmp_0xfffffffffffff7c@@
lastpgno
may
mbslen
members
memcopy
notice
nsearch
opaque
ovfl
paperciii
path16command
phase2
pkcidd
pop3d
rbtnodechain
readahead
recvmsg
regions
rk6hw
safety
sb
sha224
share
sprintf
strlcat
strtof
success
suspended
taylor
way
workaround
xgetpwuid
xmem
zl13add
zl18add
zn13file
zn16real
zn21glyph
zn4font24get
1repmgr
allinstfiles
atoulx
atoux
avx2
badusage
bracketed
c2erk8position
changev
cicb
configlist
confirm
csv
ctrl
dimension
dio
eec2epkc
env14rep
ep3dbt
hack
hctl
identifier
keepalive
keysym
lease6
levelrange
mapfile
mbrtowc
mbstowcs
muscle
nan
nbits
node7asciify
none
now
nt@@
p16glyph
p3dbtj
papersizes
parsetime
pict
purge
rks3
selector
strconcat
strcpy
support
textures
tnl
un
unquote
vacuum
vals
vzeroupper
waiter
water
yytnamerr
z13get
zl10detect
zn2db10set
zn4font10copy
zn4font21command
zn4font3res
zn4font7compact
zn8list
1mp
abi16
array8
ast
bare
before
beg
branch
calculate
cmnd
compliance
conflict
connections
constrain
cp
crt
devchain
dirstack
dlopen
dlvsym
edp
errpfx
escapement
ext2
f0
finder
follow
getaddrinfo
glob5is
gpath
hotpluggable
hour
ifname
itable6define
jmp_0xfffffffffffff86@@
listing
lseek
majmin
mangle
mbox
mkpath
need
nvlist
offsets
opd
optional
papersize
pgout
phash
points
positive
preserve
proof
relocate
restorecon
s6
scram
str2bin
stub
touch
txtacc
ucode
unsave
vqueue
warningv
weekday
worker
writef
xref
z13name
zn10vline
zn12hmotion
zn17db
zn22db
zn24unicode
zn2db10get
zn2db12get
zn8map
zn9draw
zn9top
znk15linear
accum
addattr32
ahead
alphabetic
charv
cint
ck
clause
closepipe
colour
dd
divide
dlang
dups
erealloc
extentsize
flatten
fs:@@
fwdscr
gpt
gradient
gray8
hardware
headers
hold
hsts
i6hwpath
ibuf
ident
indexed
input3get
installed
isclib
isdone
items
iterator4next
latch
monotonic
movdqa_xmm3@@
munmap
na
nomount
ocontext
pgin
putenv
pwent
raid1
rdonly
rect
regcomp
roundiii
rtprot
rtrealm
soa
strhash
strstr
strtime
strusage
ttfd
unmangle
vbuf
vdo
vlv
whole
xor
xshm
xtext
z16glyph
z7strsave
zn11lbp
zn17simple
zn20search
zn4font14alloc
zn4font15get
zn4font9open
zn9cmap
_0x808080@@
arena
atollx
atolx
bitvec
bottom
byfprint
characterv
clr
cmpfunc
co
compspec
cpage
devpath
dquots
draft
env13set
epdc
epst18
feed
flower
guess
hs
ibpkey
input4peek
interests
isroot
itable6lookup
legal
lockmode
lorder
mcount
mempcpy
mirrors
mmalloca
mntent
nelem
node8get
nolock
oom
p4font
permit
pkc.cold
polygon
prefs
privs
queued
realpath
reversefilelist
rk16font
roundiiii
scalar
sift
speed
sqlstring
strxf
syms
sysconf
timespec
tlsdesc
urls
vasnprintf
vpn
within
z21glyph
zn10text
zn14ellipse
zn14macro
zn15zero
zn4font10unit
zn4font19get
zn4font9add
zn4font9extend
_ptr_[r@@
absent
admin
agg
aligned
am
analysis
and_rsp@@
anonymous
apl
archqual
are
atoix
aup
bases
broken
cinf
codeset
counters
cpumask
dbtype
debconfclient
dx
e6symbol
eees5
ejjj
elg
emalloc
errstr
ethernet
false
fetchargs
filed
freea
funcall
highlight
ipn5dbstl12
ldapdb
lvm1
many
md5update
merger
movs@@
mysql
nsecs
ntlm
patch
pin
plural
possibly
prepare16
problem
red
revocation
rp
sha1final
smbk5pwd
sqr
strtoull
subs
substr
substring
text16
trustdb
txninfo
vsprintf
working
wsplt
xdefault
xlist
xreaddir
zn18linear
zn20argument
zn2db11set
zn2db12set
zn4font14scan
zn4font32set
zn9tab
2d
_rax_rax,
af
appctx
argful
atoullx
box10check
bs
c2epc
c2erknst7
cav
clients
cmy
crq
deny
detailed
dispatchmgr
domove
drain
dsfield
east
ep5color
face
fastmap
fb
freeres
gids
gtags
high
ib
inband
incorp
ind
indexes
inventec
ipmiseld
iproute
ist4pair
loaded
logout
mhl
modulo
motion
mpn.isra.0
nn
nsap
odd
original
p5tfont
pand@@
panes
paragraph
paren
pcmpistri_xmm0@@
piece
pk11environmenti
pk6dirent
pkcm
pointers
pump
quicksort
reserve
sets
sha1update
socketmgr
sortedlist
specialized
sqlite3session
st5tuple
stderr
strlcpy
subtract
tmpfile
trickle
trim2
underline
unpin
vertical
wcstocs
wilddump
wordbounded
xdbe
z15get
z5usage
zl8trim
zn10hline
zn11hyphen
zn14graphic
zn9temp
abitset
acceptable
addenv
asn1
bogus
booleans
boundary
bridge
c2e6hunits
circle
claim
cmp_dword_ptr_[rax+0xf0]_0,
configs
dbstl
dispatcher
div
dqentry
eea
eedp
envj
epns
epp13
errorcount
eventhandler
exact
expert
fanout
fdopen
features
fflush.cold
filecharf
filenames
filestruct
fullpath
getkey
grouped
hfs
hier
identify
indexer16ascii
indirect
iplink
keygen
keypad
less
linkdump
logreq
looking
luks
matched
mbsnlen
mkquery
mov_rax_qword_ptr_[rbp-0x810],
n9
nfind
nodebug
object10north
object10south
object5print
outdated
ownertrust
phase
pkcz
plus
prepared
printer8end
radix
records
rng
rshift
sensors
setaction
soft
sorted
stp@@
take
terms
tm2time
transition
transpose
true
uname
unput
v3
v5
vdi
wcstombs
wistron
xom
xput
xreadlink
yysyntax
z14get
zn27linear
zn2hw5value
zn4font8add
zn8pile
abs
algorithm
application
apprentice
asprintf
assertion
attempt
basecase
bmc
changeset
clntudp
cmyk
compressor
ctl
d0
dhcpv6
direction
dtor
easysrc
eg
ep17ascii
executing
fg
filespec
filesys
fish
format1
freedefs
getcwd
getfilecon
gt
infopath
inst
internerr
isotime
keep
keystroke
lbitset
like
lj
llist
makedir
msl
needle
nffreeall
nfstrnsave
node11ascii
outfile
overlap
passes
pe
portcon
ppolicy
pptp
pread
preread
printer7do
product
ptrarray
pushf
quick
radius
regexec
rows
scandir
sched
scratch
seconds
setbuf
setcloexec
setlocale
shlib
spd
stanza
strcat
strfmt
telnet
txnj
tzfree
unblock
unpause
vgs
wcstostr
west
win
winlinks
xbsd
zn10matrix
zn11block
zn12bracket
zn14push
zn15string
zn17ascii
zn20non
zn9prime
1config
1stat
afm
ancestor
arguments
atfork
awaiters
bashline
blocks2
breakpoints
camellia
cieuv
cmap
codes
compound
convolution
cpuparse
cstowcs
deleted
devs
discards
duplicates
ebitset
elt
ep6vunits
exceptiona
fadvise
fromdns
fs@@
getdata
gname
gram
gvalue
i915
incomplete
informative
initenv
intersect
ipx
isdir
itemlist
lea_rsp@@
letter
marker
mov_dword_ptr_[rbp-0x47@@
nocase
postread
prefix6
prepostread
prim
pvid
qdisc
quotify
regii
reinitialize
relate
revision
rs
separator
statdb
statusfd
suite
summa
t0
tiling
ttl
unarmor
verrevcmp
versions
vginfo
vpd
xau
xread
xunlock
zn10script
zn2db13get
zn4font8contains
zn4font8set
1re
acks
activated
actual
addrlist
amatch
argz
aris
barrier
bindconf
bol
bounding
byteorder
callbacks
capacity
closestream
ct
decimal
df
dotdot
duparg
duparg2
e6hunits
ee16
ee5erase
env10set
env15rep
ep11hyphen
epkcz
epl
exist
fdadvise
fin
forced
freeaddrinfo
fstab
fsuse
fudge
genfscon
ingrp
inpacket
interaction
invarg
ip2db
ist17
keystr
ldq@@
lhash
longjmp
mapper
mday
memcmp
mime
minimum
mismatch
mono
mtx
mymbox
node5width
nonambig
obsolete
okay
outofband
piped
pkv
portset
pp4font
ppv
printer8set
printhdr
processor
q_qword_ptr_[r@@
rdn
regfree
requests
reshape
semanage
setobsolete
setorder
sg
slashdot
strict
stringv
strm
tsig
tzfile
uint64
umask
unexpected
wacom
wildcards
yday
z12make
z15make
z9get
zn10box
zn21alphabetic
zn23diverted
zn5color11print
1cachesize
1close0
1eb85@@
1lock
aborted
addr32
altdb
authz
bdb
bottombars
brackets
bufs
byteswapped
c2e6symbol
capable
catcher
cc
channels
checks
clnt
collate
compare2
compval
corrupted
counted
crammd5
databuf
deallocate
decline
delta
dep
derive
dnet
downgrade
e12color
eenst7
efi
emacs
emptyrange
env17get
env19mutex
erks5
est
excluded
fire
fru
getattr
getcmdline
getname
getpath
grammar
intelnm
iov
isis
isolatin1
isvalid
iterate2
kind
listxattr
locales
lowcase
ltrace
marked
memjrnl
mtr
netifcon
nodate
node7get
nsec
nulls
numhash
orphan
p12
p12reference
parseversion
patterns
pct
pfi
pglist
phdr
printelim
pvm
pvsegs
qstring
reorder
reread
rescind
rgb32
rgb565
seccbk
sens
sha384
showfatal
skel
spawnp
subset
timenow
tzone
vbitset
vgetyn
video
vocab
whatfailed
writedb
xag
xchange
xheader
xstrtoumax
xwrite
yesno
z13make
z18delete
z25get
z26get
zalloc
zeroblob
zn10accent
zn12vmotion
zn19db
zn19diverted
zn2db15set
zn2db16set
zn5color13read
ansi
anubis
arp
arrayof
authunix
broot
bsd
builtins
c2ep4node
cf
closefd
constructor
cook
coredump
curve
cxt
deb
declare
descr
distance
eclosure
encap
env10get
env13get
ep5glyph.cold
ep5style
errcode
expirestr
fdb
fdiv
font13load
footer
getgr
goal
gre
gss
hc
heartbeat
hilite
hu
hyphenation
ifs
insertion
ixsysdep
jne_0xffffffffffff@@
justify
keywords
labeled
lastword
leading
lgetfilecon
lmonth
logvrfy
lol
lshift
lvid
makefinal
mbsalign
memistr
mkntfs
nfmalloc
nohost
nprocs
octet
ohshite
oro
outputs
perr
pgsql
phase1
printer9do
printversion
prof
psrldq@@
ptrmap
quiet
radiusd
randomness
recordswap
redo
reindex
rgb888
route
segs
selboolean
shellword
since
subject
substitute
t1
taskmgr
tempname
todns
too
tzset
ufree
units
unre
vgid
wday
whatnow
xadd
xdestroy
xge
xparse
xstore
xz
z14skip
z9skip
zn15extra
zn6symbol5table
zn7printer17set
zn9image
zstpl
6hunits
acts
addrcp
addref
alerts
arbfield
aton
average
bashopts
bcast
berkeleydb
book
border
buildpartial
caller
cbq
chainlock
collapse
compl
compression
conffvalue
confirmation
cpack
cpy
datetime
dbs
derivation
dialect
dialer
disass
document
doevents
dosearch
dpages
ehi
env9rep
envv
epp8
epsilon
es8
fgetfilecon
fromwire
getgrnam
gzip
hashfuncs
hfsc
hop
i9pci
ikss
ikt
inp
iovecs
isreply
keyedit
le
linenum
listusers
llseek
lockfile
lsetfilecon
math
mbsubstrlen
mdir
microcode
modcase
mtime
name16
nanosleep
nsid
numbers
nv
onpage
open2
ops
output10put
overload
overstrike
pbackfail
pers
physwrite
pka
prefetch@@
pst3set
pwrite
qammeta
ranged
rdataslab
recurse
redir
redirects
refsv
regi
rem
rfc822
rgb24
rmd160
rpm
rushdb
rwlock
sa@@
scxt
sday
services
specific
stops
symkey
tavl
th
tmpdir
tofu
tokenizer
tracking
ucs4
unavailable
unzip
validatetrans
wget
writeln
writelock
xgetcwd
xgetgrgid
xinit
z19get
z19skip
z28regstat
z8do
z9scan
zbc
zn10token
zn13underline
zn20copy
zn25non
zn5sysfs5entry
zn8dvi
znst5deque
4b00@@
aborttxn
aliascmp
alnum
autoremove
avail
bcache
beginning
between
btreemeta
btrfs
cli
closehandle
comments
cow
csearch
datagen
datapage
dimm
dirmngr
dlg
doff
dwarf
e8html
editing
ee22
eij
embed
encrypted
env10log
env23
env8lock
eph
factor
fatalv
ffi
filecon
filefrag
fns
getnext
getnum
getpage
gidlist
grace
hconf
hms
ijeeeeest17
ijrkst21piecewise
indices
inet6
invoking
ipages
ips1
item25make
keynode
keyseqs
kt
large
lazy
lc
lcd
listbox
loopmod
mallinfo
mca
memlock
mflags
modes
mounts
mut
ndx
nfstrsave
niquery
node15vertical
nodelay
outputv
palignr@@
pef
pipestatus
pkh
playback
precedence
prfooter
printed
proff
props
qr
readlock
reginfo
registers
rk10efi
roi
ruby
savekey
segtypes
serks0
setsockopt
shortcut
sizefix
skipeol
st4less
stkgrow
strlist2
subpicture
superblock
tcache
tdiv
temporary
termcap
thaw
ub@@
ucs2reverse
ucs4le
umalloc
undosplit
untranslate
v2r1
v3handshake
vect
vertex
vfat
visit
vmprintf
vote2
waittime
while
writerecord
xcopy
z34ix86
z9ut
zl8get
zn10char
zn11uaccent
zn11vcenter
zn15copy
zn2db11get
zn5dbstl12dbstl
zn7printer18set
zn8char
zn8sqrt
zn9delim
1timeout
]_b@@
_al_0,
activekids
addr64
addraw
adjindx
alpha
an
aperture
argcv
atm
aw
b5cxx11v
balance
bgr565
big5
blanks
blksize
bof
buf11make
byproto
c2ev.cold
capa
checkedv
chkspace
clist
cntrl
colormaps
comm
compatibility
completed
compose
connected
creation
crl
crontab
cxx
cycle
debug.constprop.0
debugfs
decoder
deprecated
dequeue
dlinfo
dlmopen
dorecovery
duptype
duration
ee13
ee14
eeeeest10
ei.cold
ens
entire
env14log
env17set
ep17db
ep7pkginfo
eppfv
esp
establish
expiration
fc
fconn
filei
fold
freelocker
fremove
func3
getobj
getpagesize
gettimeofday
grep
gsplit
hashcmd
hsearch
htb
ics
idup
initstate
inserting
ipsi
isbits
jpn3sql9
kerning
lan
latest
let
loopiter
lsblk
lvmpolld
lvname
mbsrtowcs
missarg
mov_r1@@
moveto
n2hw5value
n5boost7variant
newlines
nextfile
nlif
nodecon
nonce
open64
opendirat
p11
panning
pbuffer
pgerr
pgfmt
pgwrite
pinsert
poff
police
press
printer4draw
printlock
prio
psplit
pst13
putr
queries
r6source.cold
radio
rates
rclock
reconstruct
regular
resident
retcopy
rtt
sample
sections
setkey
sexpr
signatures
slotinfo
slow
snippet
ssa
starts
subcluster
sysdb
tape
te
throw
timermgr
tmpfn
towire
transcript
transient
troff
undodup
unmangled
updates
validity
varbufversion
variant
vasnprintf.cold
vmods
xdrmem
xname
yyrealloc
z15skip
z16make
z17skip
z19parse
z6concat6symbol
zn11device
zn11pointer
zn11vmotion
zn12overline
zn15linear
zn16draw
zn16special
zn18vertical
zn2db14set
zn7printer9find
a6
accumulator
addresses
allocator
allreq
alog
always
argsm
array6append
attrib
authorization
bhwrite
builder6append
bust
bvfind
category
ccnext
classes
cleaning
colormode
copypair
dbinfo
dbpage
dbremove
dependencies
destroyctx
dirname
disabled
dlbytes
dlv
dpair
draw4
dse
dtree
ellipse
env14get
env17rep
ep14tag
epps
errcb
error10error
expired
fdlock
finfo
formataddr
freespace
friendly
fromregion
getgrgid
getunimap
getxattr
give
gmatch
gotobitmap
hangup
hcreate
hdrchk
hierarchy
hmac256
htree
hup
i6hw
idspace
iget
inpitem
intro
ipmiconsole
ismydomain
isystem
itoa
iv
jar
kb
lea_rax_[rbp-0x4b@@
leader
lnstat
loadscrnmap
loadunimap
localhost
logready
lput
makeargs
mknodes
mremap
munge
mv
nam
netaddrs
nocomp
node10get
ntable
numa
opennode
operational
p5input
pagezero
pex
pgrp
play
popen
printer18set
printer8do
profil
prqueue
ptimer
punch
pupdate
putc
pvdisplay
pvscan
removable
repstart
rescan
setstate
seuser
sha
shellopts
singlestep
sqlite3changegroup
strategy
strchr
stringlist
strmatch
su
synchronize
szone
tdestroy
termsig
tri
ttyname
typein
ucs2
uflow
unsplit
updateckp
uppcase
userdata
usermem
v2handshake
varbufdependency
varbufrecord
versiondescribe
vote1
wakeup
walkqueue
xdico
xvasprintf
xx
z13do
z15change
z17remember
z23position
z9send
zl8do
zn11table
zn17center
zn23unicode
zn2db
zn8font
zn8lbp
zn8over
zn9
zn9int
1d
accumulate
addattrstrz
ansic
appname
areadlink
array16
ash
authors
b5cxx11y
bin2hex
board
buf6append
byteswap
cfile
chroot
ciexyz
cmlower
cols
commandc
configtable
cron
cstombs
curr
defcompress
dlidx
dummym
duperr
e4char
eees7
end2
entry5print
env12set
epjj
epso
erk8positiond
errseg
excl
expansion
expat
extop
fde
fputs
fq
fsdir
fwdtable
g@@
getaddr
getlocker
getopts
hashing
iadd
ieee802
incrblob
inform
init.part.0
ins
invocation
iolog
ioportcon
iprule
ips0
js
keycode
ldapaci
lget
limbo
linenoi
loaduniscrnmap
loginuid
loglevel
lsa
lvdisplay
lwres
main.cold
maintscript
mapfv
matchinfo
mbstostr
misses
modrdn
namelist
ncache
newfh
ns@@
op4
openhandle
ovflpage
p6gimple
p6hw
pcm
pcomp
perl
pirqcon
popt
prbytes
preproc
printerv
priv
prolog
providers
ptmalloc
pure
putpageinfo
pwdf
quanta
rd
rdatatype
removexattr
remrem
rendering
replpair
repmsg
requester
resend
resquery
rsearch
sanity
second
seqnum
settxn
shopts
sifted
signed
smb
sourceid
spacev
sqrt
started
strlwr
strtowcs
subexps
subquery
sup
suppress
svcerr
syncobj
te@@
tempfile
tid
time64
timeval
tobuffer
treenode
uclear
uevent
undef
unreference
urb
userrole
valuearray
varint32
vt
vunits
wa@@
waitpid
walkdupint
wcrtomb
wordbreaks
writeback
xdisplay
xgetgrnam
xlookup
xmap
xstrcoll
xstrconcat
z10do
z11guess
z12next
z13change
z13fatal
z24remember
zeq
zn11file
zn11macro
zn11special
zn11tpic
zn12block
zn12string
zn13vertical
zn18underline
zn2db16get
zn7printer9load
zn9bmpattern
1h
1partition
1txn
3d
aaaa
absdir
additional
addtok
algsetup
allocation
anchor
apprec
array32
auxdata
beginv
bgd
blink
blockinherit
booleandefno
bp
bufctx
c2em
canvas
capture
charsets
citem
clntunix
coff
colorname
comparator
comparison
compileoption
copies
countf
createctx
ctor
cxx9
dbinit
defdecompress
dest
destination
disown
dumptree
dynacl
e17db
e6hunits6vunits
eat
editor
eliminate
env10mutex
env18set
epvm
era
erk6string
ev.part.0
exe
exiting
ferror
fidpgno
fifos
fileset
filled
fprint
fprobe
generalized
getgrent
getscrnmap
getservbyname
getuniscrnmap
gmdbop
gpos
half
hhe4q
hip
hit
horizontal
hvcquery
iitem
init2
iomemcon
iptable
lea_rax_[rbp-0x18@@
lluint
lsn9db
mailvar
manpage
markdone
mbwidth
measure
minfo
newopd
nf
nimdbs
node10set
node7set
nohup
noref
offdup
oldskey
openf
ovput
pageswap
pcidevicecon
pgread
pic
pkcs11
pmap
policyload
preclose
preserved
prflags
printer10flush
printer13do
qf
rad
reads
recog
reconfigure
recops
repair
requestmgr
reregister
reuse
rgbi
runlevel
sendto
setattr
setenforce
setpwent
setxattr
sigpipe
slc
specifier
splitter
square
substrings
tcpmsg
terminating
text7do
textdomain
trusted
tsigkey
txnrange
ua
uint8
utc
vgdisplay
victory
vreadf
warnx
wctocs
wide
winch
writeout
xcheck
xclose
xfer
xfill
xstat
xstrcat
xterm
z13file
z14make
z14next
z4utf8
zl13detect
zl23vect
zl8read
zn11general
zn11hmotion
zn12place
zn14hunits
zn24hp
zn2db18get
zn2hw8resource
zn6object
zn7fat
zn7ps
zn7tab
zn8size
zn9state
1create
3des
absname
abspath
aci
addrdataset
another
argv.cold
asn
asynccancel
autostart
behaviors
breaks
brk
browser
c2ep8charinfo
c2erks0
canonuser
cidr
cl
collating
con
constructfn
container
datafile
dbfuid
defer
deppossi
destruct
deventry
dfaexec
disk2memdqblk
dlerror
dmeventd
dname
dqblk
drive
dsearch
dupcmp
endgrent
entry7add
ep12bounding
epk11environment
esc
expected
fchmod
file17really
filtering
finddatum
flock
fnl
fputc
fr
front
gd
getboth
getindex
getkeycreatecon
getkeyhandle
getmntent
getprevcon
getpwent
gotoxy
gpasswd
gtt
hdestroy
hidden
huge
hypervisor
ijrks1
immediate
in2hw8resource
indexof
inhibitor
inotify
inplace
insertpair
integrity
interrupts
inverse
ipneigh
iput
iso9660
keyinfo
koi8
kx
lbtree
lea_rax_[rbp-0x4a@@
lifetime
limb
locations
logfn
loggap
lost
madvise
maxrec
mdc
media
mgr
mlist
msort
multicast
multiplex
namevalue
nfa
node12get
node16get
noninteractive
nothread
object19update
obtain
oncmt
onrec
paniccall
parttable
passwords
pen
period
permissionx
pk5db
pkhi
pks
plist
plot
prheader
printer6do
prnpage
prune
pvcreate
qmakepath
r7pci
raid10
raid45
referrals
reflow
remfirst
retval
rounded
runas
savedir
selinuxmnt
sending
setexeccon
setpass
settime
sha3
sqlite
sssd
state8check
strcfg
string2
strpool
strsafe
strsplit
supersede
sysvinit
teardown
thickness
tkey
tools15
tostring
treewalk
trigproc
tsigkeyring
unmapfile
unsafe
urealloc
userlevel
vopenf
wanted
writes
xmit
xregister
z23check
z8get
zn11move
zn12simple
zn15line
zn18numeric
zn19writable
zn21hyphen
zn22alphabetic
zn22track
zn5cmsys11
zn5color9free
zn5colornw
zn8box
zn8mark
zn8tty
1bt
1pagesize
1remove0
1request
2exp
accessf
adaptor
addfamilylocker
addrinfo
ahcp
aliasvar
arm
au
blockgroup
buttons
c2epks
c2eps
calus
ce
cfa
chassis
checking
childcursor
chunks
ciexy
cik
circuit
classcommon
clnttcp
cmos
coalesce
compar
configj
controller
cursorpos
dashes
decide
deprep
deranged
diacr
ding
directories
doall
docid
doclist
doodads
dq
dumps
duptree
e13db
e6string
ecdb
ecdh
eeerst6vector
eeest17
eest4pair
enst7
entry8do
env14set
env17repmgr
env22
ep4nodei6vunits
epp6db
eppfi
equality
equiv
erk8positionddd
file12set
filter2
filter2bv
font27handle
footnotes
fopenf
foreground
fpclose
fsserial
func4
gcc
getconfpath
gethostbyname
getint
grad
grade
hexdump
hinting
hot
ibendportcon
idset
imap
iminstantiate
inaddr
inpackage
isatty
itemi
itemorder
keymaps
later
learn
legacy
lh
listi
loadme
lockop
lockout
lookups
mallopt
management
mbstocs
md5pad
memb
menubar
mhn
middle
mult
multiline
netmask
netrc
nextnumber
node13ends
nodej
octal
ohash
oldversion
operate
optimal
ownership
p15yy
parms
periodic
permissions
pidfile
pixels
pk11environmentc
pkvj
plj
pnp
ports
positions
postorder
pp6db
precise
preparse
printer11do
printer7special
printer9make
pvj
r11table
reactivate
reboot
reconnect
referral
rel
remevent
removal
replacement
repudiate
requestsv
rget
roleallow
roletype
rpp
segv
sen
sequence9get
setdef
setfilecon
setuid
sidorder
sockets
spf
spline
srcpath
starttls
statuschange
stifle
still
stringbuf
subdata
t13db
text16be
titlebar
tolower
toupper
triangles
triggers
tsh
tunif
turn
txnrgns
type2name
typeattribute
unary
unpacked
unstifle
unw
userrange
value4diff
vertically
vfork
vma
vstack
wn
xatoi
xatou
xext
xfopen
xfs
xkeysym
yyunput
z12guess
z22make
z5alias
zn11binary
zn13circle
zn13closed
zn13spline
zn14vunits
zn15left
zn17definition
zn17object
zn19high
zn7printer14set
zn8lj4
zn9char
zn9for
zn9limit
zn9space
znk10token
znk11search
12db
1init
1memory
1open
1version
_[rsp+0x@@
acls
acttab
akl
anim
applies
author
avg
avrulex
bank
bindtextdomain
block3
bond
box22compute
braces
btowc
buff
byindex
catchsig
catorder
cbreak
ccset
closefrom
codel
coder
complain
continuation
converters
crlf
ctxcsn
defaultrange
depmap
detached
dh
dhclient
dmalloc
dotted
doublev
drr
duped
e17units
early
ecc
eees4
elements
encapsulation
env14txn
env18get
env8rep
env9memp
epb
epfm
epp10char
est4pair
estimate
expires
file12get
file9set
filerk6string
filesystem
find2
findzonecut
fmts
freq
fromstring
fstatat
georgian
getifaddrs
getlte
getsecret
getsgent
gunze
hbgr
heredoc
hinfo
hostnames
hwcaps
ibpkeycon
icvalue
ide
idebug
idna
ifdef
ignoreeof
incorporate
infy
inq
interlude
iop
ip16client
ip6isl
iptunnel
is3
issue
istate
iterator7get
iw
jbd2
kid
lbuf
limbs
literals
lm
loc2
lowercase
lsninit
lvsegs
makepath
mapusv
markneeded
minix
modifiermap
moff
mov_rcx_qword_ptr_[rsi-0x@@
movmsk@@
mphf
mswap
nest
netgroup
node16merge
node6reread
nrecs
ntol
ntp
offtime
oidm
oldest
om@@
online
optimization
ospf
pagfno
palette
patsub
peerlist
pggap
phase3
pick
pids
pki
planes
plausibility
plugins
positional
pp4node
preedit
preload
preupdate
printer9set
procinfo
promote
prot
qthread
rangetransition
readlinkf
readsocket
refcnt
register6
regv
rela
releasedir
rendition
renumber
reparse
rhs
romfs
router
rsvp
rtntype
rz
scanff
schemes
securetty
sensitivityorder
separation
serialno
setgrent
sfs
shttp
sib
smbios
specs
splice
srcfile
stifled
stipple
stringify
strtombs
strtonum
subexpression
systemd
ta
tabdiff
termtype
text6do
timevaladd
tlsa
tolease
tr
translations
transparent
trapped
trip
trtable
tsec
unchanged
uninit
universal
unmount
upgrading
ustats
vbgr
ver
vgcreate
vmodmap
vol
vrgb
watchdog
xatoull
xcup
xfrmproto
xsecurity
xstrtol
xungrab
yto
z11get
z12xtmptemplate
z17adjust
zfree
zl9read
zn11environment21get
zn11int
zn11packagelist
zn11packagelist3add
zn12schar
zn12variable
zn16right
zn20horizontal
zn5colordl
zn6statem7add
zn7sysfs
zn8baselist9kd
1backup
1memp
1site
32bit
64bit
abi
al
annotations
asctime
backsig
base32hex
basehm
benchmark
bot
buffering
busid
bv
c2em11environment
c2epkci.part.1
childput
cie
ciexyzto
classid
classmapping
classorder
click
clientdata
clusters
cname
colons
compfunc
compliant
compopt
configpj
constants
coordinates
courier
cshl
customizable
da
dataset
dates
days
dbdata
dbsite
defined
deque
deregister6
dfree
distribute
diversion18transparent
doctype
doreq
download
dp
drag
dupnode
e16db
e18string
e9font
eightbit
else
endpwent
endsgent
enoent
enough
env13mutex
env14mutex
env16rep
env19
env21repmgr
env8log
eot
ep3dbtj
ep5table
epfj
epk8
epp15
epp4node
epppkc
erange
erkn2hw8resource
erks0
estrdup
fcopy
fdisk
filepackages
filev
findlastckp
floppyd
fontdata
fromlease
fsetfilecon
genkey
getfscreatecon
gethostname
getnextkey
getpageinfo
getpeercon
getpidcon
getservbyport
getsockname
gettag
gettype
given
gmtime
gui
here
hhu
hlist
hn
hvc
iaddrcidrnetlist
implicit
indir
infos
inmemlist
insertfile
inv
ips5
iread
isar
item4load
iterate3
jnlib
library15
libversion
linkinfo
listmech
logconfig
logv
loopback
low
lpf
lsnij
macros
making
matcher
maxpermlsn
mbrep
mdfour
memcasecmp
menuitem
mfile
mg
mice
mprintf
msgbuf
msgcat
nalunit
nic
nlnkfile
node14get
nodei
nonroot
object7move
occurs
ocsp
ohshitv
opendirf
options6
outlines
outpacket
p10
p6statem
packagefiles
pageinfo
parseline
partitioned
pcsc
percentage
pet
physdel
physical
piaddr
platform
plex
pmin@@
policycap
polling
postprocess
ppi
pppoe
prealloc
prefer
preset
printer11end
proceed
protects
pushd
putbyte
radix64
range2cidr
rc4
rcfile
rdatasetstats
rects
refill
relabel
requested
retr
ro
runlist
s16
safeprobe
samp
screens
sd
sdiff
secs
sectsize
sendmsg
sensitivity
separate
serks3
setcon
setmntent
setservers
setsockcreatecon
sfn
sighup
sigstop
size2
slice
snorf
specify
spins
spn
sprintfa
srandom
stamp
stored
string2feature
structures
subdir
subencapsulation
subexpr
subkey
tas
tcsetattr
thirdparty
tile
tunables
twid
uerr2isc
ulist
unlockall
unnamed
userspace
uvwrite
valloc
varray
vdprintf
verror
vfscanf
via
viewport
vr
vrf
vrule
vxlan
waiting
wcstocts
wd
wgetrc
winsize
xargs
xconnect
xint
xsave
xstrtoull
z17init
z9do
zap
zl10dmi
zl28read
zn10definition
zn10lineup
zn13charinfo
zn14command
zn14string
zn16char
zn16protected
zn17overline
zn17right
zn21vertical
zn22label
zn2db17get
zn4mtsm11has
zn4path
[...]
